<unk>	0
<s>	0
</s>	0
en	-0
er	-1
in	-2
▁d	-3
▁a	-4
▁t	-5
ch	-6
on	-7
es	-8
un	-9
▁th	-10
is	-11
it	-12
▁s	-13
at	-14
▁w	-15
ie	-16
or	-17
an	-18
▁the	-19
re	-20
▁b	-21
al	-22
ion	-23
▁in	-24
▁o	-25
ar	-26
▁f	-27
te	-28
ich	-29
ro	-30
▁m	-31
▁e	-32
▁an	-33
as	-34
le	-35
▁p	-36
▁c	-37
▁un	-38
us	-39
▁S	-40
ent	-41
ge	-42
▁h	-43
▁of	-44
ung	-45
ur	-46
▁n	-47
▁E	-48
▁v	-49
ing	-50
om	-51
▁A	-52
▁and	-53
▁to	-54
▁der	-55
ll	-56
▁die	-57
ed	-58
▁und	-59
st	-60
ic	-61
▁I	-62
ig	-63
▁M	-64
▁D	-65
▁be	-66
▁T	-67
▁B	-68
▁z	-69
▁ein	-70
▁is	-71
▁P	-72
im	-73
ter	-74
el	-75
ra	-76
ir	-77
em	-78
▁g	-79
ut	-80
ation	-81
il	-82
et	-83
eit	-84
ten	-85
▁F	-86
der	-87
ol	-88
▁W	-89
den	-90
▁re	-91
▁G	-92
▁l	-93
▁C	-94
am	-95
sch	-96
ies	-97
ct	-98
▁K	-99
hr	-100
um	-101
▁R	-102
ber	-103
uf	-104
iv	-105
ul	-106
lich	-107
▁H	-108
▁V	-109
▁k	-110
de	-111
omm	-112
isch	-113
▁for	-114
ür	-115
ab	-116
▁Th	-117
rop	-118
▁das	-119
gen	-120
ier	-121
icht	-122
ot	-123
▁zu	-124
▁den	-125
▁on	-126
ess	-127
▁L	-128
est	-129
▁U	-130
ere	-131
and	-132
id	-133
ly	-134
os	-135
▁that	-136
ce	-137
▁von	-138
▁im	-139
ein	-140
ers	-141
urop	-142
▁r	-143
iss	-144
ach	-145
tr	-146
▁In	-147
ow	-148
▁ge	-149
ort	-150
▁al	-151
▁wh	-152
▁pro	-153
ff	-154
uch	-155
kt	-156
▁con	-157
▁N	-158
▁für	-159
ver	-160
▁(	-161
ith	-162
▁er	-163
▁Europ	-164
▁auf	-165
▁wir	-166
▁ver	-167
ill	-168
▁The	-169
▁des	-170
ft	-171
▁2	-172
▁Z	-173
▁ist	-174
▁y	-175
▁with	-176
ment	-177
men	-178
▁st	-179
▁de	-180
▁1	-181
ay	-182
▁ne	-183
ate	-184
▁mit	-185
▁so	-186
▁are	-187
▁as	-188
▁it	-189
op	-190
ve	-191
ad	-192
▁-	-193
ck	-194
ind	-195
▁we	-196
ungen	-197
ission	-198
▁dies	-199
▁St	-200
pp	-201
ischen	-202
th	-203
ts	-204
▁Ver	-205
ik	-206
▁Un	-207
for	-208
ien	-209
ah	-210
00	-211
qu	-212
▁se	-213
ommission	-214
la	-215
ity	-216
if	-217
ive	-218
ib	-219
ou	-220
end	-221
ial	-222
und	-223
▁als	-224
▁eine	-225
▁Re	-226
▁dem	-227
än	-228
our	-229
ak	-230
▁ex	-231
▁An	-232
▁J	-233
nen	-234
▁wer	-235
ne	-236
ist	-237
über	-238
art	-239
▁dass	-240
sp	-241
▁O	-242
ste	-243
ant	-244
▁werden	-245
▁Die	-246
▁le	-247
▁j	-248
▁this	-249
▁ha	-250
▁by	-251
▁or	-252
▁nicht	-253
tel	-254
▁sich	-255
▁not	-256
▁"	-257
▁co	-258
▁all	-259
ub	-260
we	-261
ann	-262
ens	-263
▁Europe	-264
igen	-265
▁will	-266
ug	-267
▁Sie	-268
ust	-269
omp	-270
ain	-271
rom	-272
▁aus	-273
ass	-274
igh	-275
▁at	-276
ungs	-277
▁über	-278
lie	-279
▁have	-280
ern	-281
all	-282
pe	-283
ran	-284
uld	-285
▁i	-286
ag	-287
scha	-288
ure	-289
iel	-290
ted	-291
od	-292
ions	-293
▁Be	-294
▁me	-295
up	-296
▁es	-297
ze	-298
▁sh	-299
▁EU	-300
uss	-301
age	-302
▁ab	-303
ahr	-304
▁Pr	-305
▁Sch	-306
hen	-307
tern	-308
▁En	-309
▁um	-310
ben	-311
hal	-312
aus	-313
▁which	-314
du	-315
▁was	-316
▁from	-317
▁Pro	-318
▁vor	-319
gr	-320
▁wird	-321
ische	-322
ard	-323
esch	-324
▁pr	-325
▁sind	-326
▁auch	-327
och	-328
form	-329
▁you	-330
schaft	-331
▁European	-332
ould	-333
ue	-334
▁has	-335
ss	-336
me	-337
▁ent	-338
ud	-339
▁sch	-340
▁ch	-341
▁en	-342
ang	-343
ip	-344
▁Er	-345
og	-346
▁uns	-347
ident	-348
iz	-349
llen	-350
▁Commission	-351
▁res	-352
▁comp	-353
oc	-354
▁us	-355
tz	-356
ick	-357
▁Mit	-358
etz	-359
▁We	-360
urch	-361
be	-362
▁200	-363
▁zur	-364
ire	-365
▁wor	-366
ige	-367
ine	-368
ön	-369
aben	-370
ert	-371
ational	-372
port	-373
▁hat	-374
keit	-375
ise	-376
mer	-377
ap	-378
able	-379
▁Ar	-380
ia	-381
ations	-382
ore	-383
ok	-384
ast	-385
▁wie	-386
beit	-387
lichen	-388
enn	-389
ark	-390
aten	-391
eren	-392
▁Aus	-393
cc	-394
▁he	-395
ous	-396
ition	-397
ese	-398
ult	-399
▁ad	-400
ect	-401
▁sein	-402
rit	-403
heit	-404
ost	-405
erv	-406
▁sie	-407
pr	-408
ction	-409
▁man	-410
▁Ein	-411
▁can	-412
ome	-413
▁Kommission	-414
▁also	-415
▁oder	-416
olit	-417
lo	-418
he	-419
dern	-420
ice	-421
otel	-422
ates	-423
ish	-424
är	-425
▁bei	-426
ät	-427
ated	-428
err	-429
▁Par	-430
vel	-431
ember	-432
▁einer	-433
ical	-434
▁unter	-435
ament	-436
ord	-437
ther	-438
▁haben	-439
are	-440
▁da	-441
se	-442
▁kön	-443
▁am	-444
fü	-445
ms	-446
out	-447
▁reg	-448
▁Ge	-449
▁part	-450
▁Europä	-451
▁nach	-452
tw	-453
▁ich	-454
ör	-455
▁Vor	-456
▁its	-457
ün	-458
oun	-459
▁Union	-460
hl	-461
ieren	-462
tra	-463
▁our	-464
con	-465
liche	-466
ht	-467
▁durch	-468
▁einen	-469
▁.	-470
ear	-471
▁Wir	-472
tet	-473
ign	-474
upp	-475
ac	-476
ance	-477
anz	-478
pt	-479
gra	-480
ank	-481
ger	-482
yste	-483
her	-484
▁wur	-485
ary	-486
▁It	-487
oll	-488
cial	-489
iert	-490
▁Gr	-491
▁app	-492
▁Das	-493
ake	-494
▁te	-495
▁inc	-496
▁gro	-497
cht	-498
▁3	-499
▁qu	-500
▁do	-501
gt	-502
▁ag	-503
ight	-504
▁Unter	-505
mp	-506
▁Parl	-507
elt	-508
ite	-509
▁ste	-510
ide	-511
▁19	-512
▁Ab	-513
iff	-514
wer	-515
▁their	-516
▁go	-517
▁dis	-518
▁tra	-519
▁more	-520
▁De	-521
▁fin	-522
ian	-523
ose	-524
au	-525
ase	-526
hmen	-527
▁können	-528
ov	-529
▁dar	-530
hre	-531
▁sp	-532
▁Fra	-533
▁ro	-534
utz	-535
ail	-536
▁Ber	-537
▁gen	-538
lic	-539
▁coun	-540
ile	-541
glie	-542
land	-543
gram	-544
ual	-545
▁there	-546
chen	-547
ommen	-548
▁str	-549
▁war	-550
▁but	-551
▁cont	-552
▁bet	-553
▁would	-554
äs	-555
ont	-556
ges	-557
formation	-558
per	-559
ierung	-560
▁acc	-561
act	-562
chn	-563
▁been	-564
üss	-565
▁off	-566
▁einem	-567
▁zum	-568
▁This	-569
ble	-570
▁your	-571
reat	-572
ime	-573
ute	-574
ities	-575
nah	-576
ild	-577
ru	-578
▁comm	-579
▁Mr	-580
▁Auf	-581
ack	-582
gan	-583
▁spe	-584
imm	-585
▁Der	-586
▁bes	-587
glich	-588
sten	-589
▁imp	-590
▁new	-591
ück	-592
▁For	-593
▁Te	-594
ong	-595
▁Ch	-596
▁diese	-597
sta	-598
zu	-599
ahl	-600
▁Le	-601
▁countr	-602
▁Sp	-603
ner	-604
oss	-605
ame	-606
▁Ich	-607
▁mö	-608
▁Al	-609
▁Jahr	-610
teil	-611
ents	-612
igkeit	-613
mit	-614
ution	-615
reich	-616
ob	-617
▁kann	-618
ähr	-619
▁Mitglie	-620
▁per	-621
▁ob	-622
▁Herr	-623
chte	-624
▁work	-625
▁pl	-626
▁Reg	-627
bar	-628
ied	-629
ree	-630
▁alle	-631
▁ihr	-632
▁Member	-633
geb	-634
▁zw	-635
▁up	-636
one	-637
▁nur	-638
▁ar	-639
lin	-640
▁should	-641
▁Se	-642
auf	-643
fen	-644
ons	-645
▁Dies	-646
che	-647
ke	-648
▁one	-649
▁Hotel	-650
▁dieser	-651
▁cons	-652
velop	-653
).	-654
ktion	-655
ely	-656
fe	-657
▁weit	-658
eine	-659
▁out	-660
uß	-661
ors	-662
gel	-663
▁,	-664
to	-665
▁ind	-666
▁sa	-667
▁prop	-668
▁pre	-669
ments	-670
tell	-671
▁supp	-672
tschaft	-673
▁cl	-674
ject	-675
▁ber	-676
hn	-677
ings	-678
▁other	-679
▁intern	-680
▁soll	-681
▁inter	-682
▁need	-683
▁ma	-684
▁20	-685
fr	-686
▁Mitglied	-687
ces	-688
▁prov	-689
ammen	-690
▁4	-691
▁tran	-692
▁eff	-693
▁they	-694
äsident	-695
ld	-696
▁jed	-697
wo	-698
▁produ	-699
▁wurde	-700
abe	-701
usammen	-702
▁year	-703
ced	-704
ike	-705
olle	-706
ks	-707
▁5	-708
▁noch	-709
esident	-710
entr	-711
leich	-712
▁mehr	-713
▁must	-714
nehmen	-715
▁pe	-716
ütz	-717
ative	-718
▁Europäischen	-719
ystem	-720
▁polit	-721
▁States	-722
ater	-723
uen	-724
schen	-725
ateg	-726
ures	-727
fahr	-728
pl	-729
olog	-730
ven	-731
▁Ma	-732
▁sow	-733
üssen	-734
ffen	-735
▁develop	-736
▁who	-737
arbeit	-738
▁Arbeit	-739
arket	-740
ange	-741
ität	-742
▁very	-743
▁rec	-744
alt	-745
▁Es	-746
oin	-747
assen	-748
av	-749
▁no	-750
ible	-751
▁gr	-752
erg	-753
▁Um	-754
änd	-755
führ	-756
▁dec	-757
▁müssen	-758
▁only	-759
igt	-760
conom	-761
xt	-762
▁fe	-763
stit	-764
▁inv	-765
staaten	-766
erm	-767
ility	-768
▁gegen	-769
▁conc	-770
▁serv	-771
olic	-772
▁wenn	-773
▁ihre	-774
ickl	-775
▁la	-776
io	-777
▁act	-778
▁these	-779
ans	-780
onder	-781
▁ges	-782
ious	-783
str	-784
wor	-785
cess	-786
bs	-787
ient	-788
sche	-789
▁bec	-790
▁about	-791
▁aber	-792
äl	-793
ices	-794
▁time	-795
ific	-796
ular	-797
iew	-798
kte	-799
▁sub	-800
▁hin	-801
wend	-802
▁Ü	-803
▁ra	-804
cy	-805
ett	-806
fore	-807
iven	-808
▁any	-809
▁like	-810
▁President	-811
ring	-812
atz	-813
ally	-814
amp	-815
iger	-816
ism	-817
ken	-818
fol	-819
fer	-820
ement	-821
),	-822
led	-823
ider	-824
▁Mar	-825
▁Y	-826
▁such	-827
▁Entw	-828
irect	-829
als	-830
▁import	-831
vent	-832
halten	-833
▁rel	-834
icher	-835
enz	-836
..	-837
▁tr	-838
▁Präsident	-839
ene	-840
rie	-841
▁gem	-842
▁diesem	-843
▁sol	-844
▁wo	-845
▁countries	-846
▁Men	-847
ßen	-848
▁over	-849
ale	-850
own	-851
▁ins	-852
▁Über	-853
▁market	-854
▁sehr	-855
▁international	-856
cil	-857
irst	-858
▁Coun	-859
▁Mitgliedstaaten	-860
fl	-861
▁Ne	-862
▁wel	-863
ople	-864
uropä	-865
iament	-866
rei	-867
▁Fin	-868
▁national	-869
ugh	-870
▁Comm	-871
ibt	-872
ublic	-873
▁Parlament	-874
▁under	-875
iden	-876
erson	-877
etzt	-878
▁econom	-879
enden	-880
▁best	-881
olitik	-882
ustr	-883
▁Entwickl	-884
▁So	-885
▁bis	-886
▁Zeit	-887
▁into	-888
▁polic	-889
▁add	-890
arge	-891
▁eines	-892
▁were	-893
▁incl	-894
hnen	-895
nahmen	-896
▁propos	-897
ats	-898
▁Nach	-899
ph	-900
▁if	-901
wir	-902
isten	-903
▁Council	-904
▁Verb	-905
ds	-906
ühr	-907
▁report	-908
▁partic	-909
els	-910
▁people	-911
▁sowie	-912
zeit	-913
▁support	-914
▁aut	-915
itu	-916
änder	-917
▁europä	-918
wn	-919
▁hel	-920
▁use	-921
stütz	-922
▁ass	-923
ull	-924
ook	-925
ween	-926
kl	-927
ho	-928
esent	-929
ays	-930
ause	-931
unden	-932
▁gew	-933
▁than	-934
▁unser	-935
▁leg	-936
▁Im	-937
ards	-938
hör	-939
pro	-940
lä	-941
uer	-942
igung	-943
▁high	-944
ating	-945
inis	-946
▁well	-947
▁between	-948
ory	-949
ives	-950
▁wicht	-951
▁zwischen	-952
öff	-953
halt	-954
▁Kon	-955
▁some	-956
▁loc	-957
▁Parliament	-958
amen	-959
▁diff	-960
iet	-961
▁Me	-962
hand	-963
sicht	-964
▁Europäische	-965
▁bas	-966
▁Zusammen	-967
▁Or	-968
▁information	-969
ha	-970
▁requ	-971
▁6	-972
▁muss	-973
▁com	-974
▁Land	-975
tre	-976
ional	-977
iele	-978
▁ele	-979
▁vom	-980
▁first	-981
▁Menschen	-982
les	-983
ural	-984
ues	-985
▁Bed	-986
▁Str	-987
▁hotel	-988
▁most	-989
ace	-990
ights	-991
rat	-992
▁bereit	-993
▁them	-994
▁viel	-995
▁dam	-996
ink	-997
zial	-998
▁again	-999
▁US	-1000
▁my	-1001
over	-1002
▁vers	-1003
ßnahmen	-1004
äch	-1005
▁As	-1006
chts	-1007
erein	-1008
▁Ges	-1009
acht	-1010
fin	-1011
▁bed	-1012
ters	-1013
ital	-1014
▁her	-1015
▁when	-1016
▁199	-1017
▁Q	-1018
ages	-1019
▁Intern	-1020
kommen	-1021
▁lie	-1022
cted	-1023
▁what	-1024
▁gu	-1025
forder	-1026
att	-1027
▁möchte	-1028
▁He	-1029
fter	-1030
▁dieses	-1031
itz	-1032
halb	-1033
rauch	-1034
▁kon	-1035
eschä	-1036
illion	-1037
red	-1038
je	-1039
uro	-1040
▁Europa	-1041
▁now	-1042
▁Fl	-1043
▁how	-1044
rag	-1045
▁techn	-1046
essen	-1047
legen	-1048
▁kn	-1049
▁av	-1050
▁fr	-1051
isation	-1052
▁verb	-1053
dem	-1054
oth	-1055
▁Pl	-1056
vor	-1057
issen	-1058
itte	-1059
▁make	-1060
▁op	-1061
ision	-1062
lish	-1063
zie	-1064
▁Grund	-1065
▁hier	-1066
ereich	-1067
▁important	-1068
▁just	-1069
pect	-1070
unity	-1071
eration	-1072
▁Vorsch	-1073
rough	-1074
ever	-1075
▁his	-1076
000	-1077
▁sc	-1078
gramm	-1079
any	-1080
▁Bericht	-1081
▁Ent	-1082
gh	-1083
▁201	-1084
▁Art	-1085
ior	-1086
▁rem	-1087
ote	-1088
hm	-1089
▁Rat	-1090
...	-1091
ließ	-1092
öglich	-1093
▁fo	-1094
▁Gem	-1095
▁iss	-1096
ium	-1097
▁fre	-1098
▁mo	-1099
▁pla	-1100
uman	-1101
inn	-1102
▁pos	-1103
▁7	-1104
ös	-1105
▁policy	-1106
▁emp	-1107
ict	-1108
▁world	-1109
rol	-1110
bal	-1111
▁take	-1112
uring	-1113
urr	-1114
ited	-1115
arm	-1116
▁keine	-1117
▁Information	-1118
ischer	-1119
▁two	-1120
▁many	-1121
▁anderen	-1122
▁Unternehmen	-1123
nis	-1124
leg	-1125
▁public	-1126
▁gibt	-1127
▁8	-1128
▁ange	-1129
▁ever	-1130
oint	-1131
▁Bereich	-1132
trag	-1133
ußer	-1134
ri	-1135
lear	-1136
▁poss	-1137
bst	-1138
eins	-1139
▁einz	-1140
icherheit	-1141
lag	-1142
▁room	-1143
▁end	-1144
▁wurden	-1145
day	-1146
ount	-1147
itä	-1148
▁weiter	-1149
▁where	-1150
▁All	-1151
▁through	-1152
gend	-1153
▁Fr	-1154
weise	-1155
▁disc	-1156
ful	-1157
▁system	-1158
ält	-1159
ina	-1160
▁years	-1161
mal	-1162
ware	-1163
▁[	-1164
stand	-1165
mittel	-1166
stell	-1167
▁good	-1168
unkt	-1169
▁ac	-1170
ändern	-1171
▁ke	-1172
▁may	-1173
▁trans	-1174
nung	-1175
kehr	-1176
▁includ	-1177
▁had	-1178
net	-1179
▁'	-1180
blem	-1181
air	-1182
▁made	-1183
▁hand	-1184
isse	-1185
▁those	-1186
▁son	-1187
ument	-1188
▁see	-1189
schie	-1190
▁10	-1191
▁particular	-1192
▁tak	-1193
▁par	-1194
▁num	-1195
achen	-1196
▁because	-1197
öffent	-1198
iti	-1199
tegr	-1200
▁rest	-1201
geben	-1202
▁sel	-1203
aff	-1204
▁9	-1205
feren	-1206
lement	-1207
eral	-1208
▁Entwicklung	-1209
▁Ex	-1210
eschäft	-1211
eln	-1212
▁find	-1213
▁resp	-1214
▁product	-1215
▁great	-1216
▁development	-1217
ivers	-1218
iron	-1219
▁Con	-1220
isen	-1221
ath	-1222
ße	-1223
spr	-1224
ality	-1225
▁Hand	-1226
▁beste	-1227
▁meas	-1228
▁mon	-1229
▁concern	-1230
urn	-1231
▁Ihr	-1232
trib	-1233
innen	-1234
▁exp	-1235
ows	-1236
itions	-1237
▁Ha	-1238
▁Diese	-1239
hin	-1240
▁bie	-1241
▁agre	-1242
▁Wh	-1243
alls	-1244
round	-1245
luss	-1246
ys	-1247
▁finan	-1248
▁Produ	-1249
▁economic	-1250
ower	-1251
ften	-1252
ahmen	-1253
gramme	-1254
▁way	-1255
▁direct	-1256
▁Br	-1257
iness	-1258
ax	-1259
chten	-1260
▁view	-1261
▁Komm	-1262
▁damit	-1263
▁compet	-1264
▁Maßnahmen	-1265
off	-1266
zeich	-1267
▁order	-1268
▁If	-1269
stitution	-1270
ituation	-1271
▁car	-1272
▁main	-1273
▁help	-1274
ster	-1275
cept	-1276
▁prote	-1277
▁Ä	-1278
▁zwe	-1279
▁incre	-1280
▁Seit	-1281
▁nat	-1282
gest	-1283
▁Fran	-1284
com	-1285
nahme	-1286
▁access	-1287
▁get	-1288
▁min	-1289
▁Finanz	-1290
lick	-1291
hor	-1292
hil	-1293
ved	-1294
▁Gro	-1295
▁even	-1296
viron	-1297
für	-1298
erung	-1299
▁transp	-1300
▁fund	-1301
▁bus	-1302
▁being	-1303
amil	-1304
▁invest	-1305
fort	-1306
fahren	-1307
▁diesen	-1308
dition	-1309
▁..	-1310
▁su	-1311
▁unsere	-1312
▁Hin	-1313
▁every	-1314
▁effect	-1315
▁organ	-1316
▁Geb	-1317
▁human	-1318
▁process	-1319
raft	-1320
hne	-1321
▁cre	-1322
work	-1323
▁neue	-1324
ende	-1325
read	-1326
▁oper	-1327
▁Wirtschaft	-1328
▁Inter	-1329
▁Zu	-1330
▁Bar	-1331
▁Rahmen	-1332
▁est	-1333
lagen	-1334
eng	-1335
▁mein	-1336
vironment	-1337
lobal	-1338
▁level	-1339
gesch	-1340
20	-1341
hol	-1342
▁On	-1343
▁Sta	-1344
▁fest	-1345
▁Wenn	-1346
ough	-1347
▁There	-1348
▁Ind	-1349
hip	-1350
▁Bür	-1351
get	-1352
▁Ste	-1353
ulation	-1354
itt	-1355
▁Her	-1356
▁Haus	-1357
▁Richt	-1358
laub	-1359
▁fact	-1360
immer	-1361
▁right	-1362
loy	-1363
▁number	-1364
▁neuen	-1365
lex	-1366
▁ihrer	-1367
bens	-1368
▁jedoch	-1369
bes	-1370
isk	-1371
trä	-1372
▁immer	-1373
▁ger	-1374
▁area	-1375
ry	-1376
▁Des	-1377
az	-1378
▁ens	-1379
▁curr	-1380
▁avail	-1381
▁Ihre	-1382
▁sign	-1383
ently	-1384
ised	-1385
▁beg	-1386
ress	-1387
weit	-1388
rechen	-1389
▁services	-1390
▁contin	-1391
akt	-1392
urs	-1393
bewer	-1394
▁Bes	-1395
▁belie	-1396
eld	-1397
▁own	-1398
elle	-1399
adt	-1400
▁wür	-1401
▁heute	-1402
▁cent	-1403
org	-1404
▁wieder	-1405
licher	-1406
▁Welt	-1407
▁At	-1408
▁gesch	-1409
ond	-1410
schieden	-1411
▁political	-1412
lage	-1413
derung	-1414
▁sec	-1415
▁europäischen	-1416
part	-1417
▁ausge	-1418
▁dann	-1419
ince	-1420
▁seine	-1421
reit	-1422
einschaft	-1423
urther	-1424
isp	-1425
▁Ihnen	-1426
ierte	-1427
line	-1428
ines	-1429
▁stand	-1430
vern	-1431
▁within	-1432
ma	-1433
▁against	-1434
▁Gen	-1435
▁Informationen	-1436
▁provid	-1437
▁kein	-1438
▁del	-1439
tellt	-1440
▁Bei	-1441
aur	-1442
ktur	-1443
▁after	-1444
▁deb	-1445
ettbewer	-1446
▁Teil	-1447
ierten	-1448
▁could	-1449
mar	-1450
ders	-1451
▁cour	-1452
▁Rechts	-1453
ler	-1454
▁bereits	-1455
▁Commissioner	-1456
▁social	-1457
wert	-1458
▁gemeins	-1459
▁bu	-1460
ix	-1461
entral	-1462
▁project	-1463
▁sm	-1464
etzung	-1465
▁Part	-1466
richt	-1467
▁Energ	-1468
atter	-1469
▁Bet	-1470
aut	-1471
tens	-1472
▁rights	-1473
▁ganz	-1474
ool	-1475
▁cap	-1476
▁...	-1477
▁Euro	-1478
ienst	-1479
▁full	-1480
ux	-1481
▁Kont	-1482
▁real	-1483
oy	-1484
▁Pre	-1485
▁set	-1486
▁clear	-1487
200	-1488
▁form	-1489
▁appro	-1490
ondere	-1491
▁Mon	-1492
▁does	-1493
rä	-1494
öglichkeit	-1495
▁same	-1496
▁both	-1497
▁Am	-1498
welt	-1499
agement	-1500
▁Sicherheit	-1501
icult	-1502
satz	-1503
ata	-1504
▁ser	-1505
▁priv	-1506
cl	-1507
ouse	-1508
▁opp	-1509
ertain	-1510
▁ph	-1511
alk	-1512
utions	-1513
loss	-1514
gar	-1515
▁know	-1516
▁country	-1517
schließ	-1518
▁etw	-1519
▁sondern	-1520
ollow	-1521
▁denen	-1522
vers	-1523
ests	-1524
its	-1525
▁Germ	-1526
▁lang	-1527
etzen	-1528
sel	-1529
pf	-1530
alth	-1531
osten	-1532
▁place	-1533
▁führ	-1534
▁pra	-1535
äng	-1536
esen	-1537
zeug	-1538
äh	-1539
lim	-1540
operation	-1541
öß	-1542
▁govern	-1543
▁sim	-1544
▁available	-1545
▁quest	-1546
▁Man	-1547
▁15	-1548
▁cr	-1549
▁How	-1550
▁measures	-1551
▁Is	-1552
▁wen	-1553
press	-1554
esell	-1555
▁bring	-1556
▁possible	-1557
▁gleich	-1558
iver	-1559
▁impro	-1560
▁therefore	-1561
linie	-1562
▁Mittel	-1563
▁Wie	-1564
▁Jahren	-1565
upt	-1566
eth	-1567
▁consider	-1568
▁environment	-1569
▁Vers	-1570
grund	-1571
klär	-1572
▁author	-1573
ritt	-1574
▁val	-1575
▁Verein	-1576
▁med	-1577
▁conf	-1578
▁industr	-1579
▁ter	-1580
ade	-1581
ähl	-1582
ätz	-1583
ständ	-1584
ants	-1585
▁require	-1586
▁equ	-1587
eut	-1588
▁sollte	-1589
▁dr	-1590
ability	-1591
ics	-1592
▁wichtig	-1593
ock	-1594
▁Ziel	-1595
ER	-1596
stru	-1597
gem	-1598
▁zwei	-1599
uct	-1600
ination	-1601
isl	-1602
▁today	-1603
▁unterstütz	-1604
▁Frau	-1605
issar	-1606
▁sect	-1607
urity	-1608
ruck	-1609
▁andere	-1610
▁Ger	-1611
ator	-1612
▁adop	-1613
▁financial	-1614
reichen	-1615
▁redu	-1616
▁letz	-1617
▁gel	-1618
rif	-1619
yp	-1620
ving	-1621
▁Bürger	-1622
▁spec	-1623
▁business	-1624
▁last	-1625
erent	-1626
zus	-1627
ragen	-1628
▁ide	-1629
▁play	-1630
▁0	-1631
ize	-1632
nov	-1633
ystems	-1634
itiz	-1635
▁ers	-1636
äß	-1637
nisse	-1638
erk	-1639
▁Ad	-1640
ules	-1641
vest	-1642
▁law	-1643
▁used	-1644
lichkeit	-1645
▁Fre	-1646
▁sollten	-1647
▁ohne	-1648
▁unserer	-1649
▁then	-1650
par	-1651
▁fun	-1652
fach	-1653
uture	-1654
▁könn	-1655
war	-1656
kten	-1657
inc	-1658
ohl	-1659
aking	-1660
▁air	-1661
▁sur	-1662
▁person	-1663
ionen	-1664
▁want	-1665
▁Än	-1666
way	-1667
inister	-1668
▁much	-1669
▁energ	-1670
ically	-1671
äre	-1672
man	-1673
▁prof	-1674
ep	-1675
▁prom	-1676
ased	-1677
▁habe	-1678
leist	-1679
br	-1680
scheid	-1681
riften	-1682
fte	-1683
▁group	-1684
▁dazu	-1685
▁You	-1686
▁said	-1687
zahl	-1688
▁long	-1689
▁finden	-1690
ichte	-1691
ude	-1692
▁selbst	-1693
ichts	-1694
▁18	-1695
▁öffent	-1696
jor	-1697
▁rev	-1698
ährend	-1699
ified	-1700
füg	-1701
▁vis	-1702
kun	-1703
▁still	-1704
▁say	-1705
▁strateg	-1706
▁Daten	-1707
ret	-1708
old	-1709
eich	-1710
une	-1711
ittee	-1712
fern	-1713
▁integr	-1714
▁Gemeinschaft	-1715
▁gut	-1716
▁future	-1717
ktiv	-1718
▁Fe	-1719
▁global	-1720
ready	-1721
▁offer	-1722
▁var	-1723
üh	-1724
▁Internet	-1725
▁here	-1726
isierung	-1727
ife	-1728
▁Ö	-1729
que	-1730
licht	-1731
gress	-1732
ibility	-1733
▁mod	-1734
]]	-1735
▁Person	-1736
▁free	-1737
▁activ	-1738
▁hist	-1739
zug	-1740
▁besch	-1741
▁Wettbewer	-1742
▁open	-1743
▁Markt	-1744
▁Dem	-1745
▁down	-1746
▁before	-1747
▁follow	-1748
▁einge	-1749
immt	-1750
besondere	-1751
▁größ	-1752
ential	-1753
▁fol	-1754
▁neg	-1755
ward	-1756
▁fac	-1757
▁möglich	-1758
cing	-1759
▁case	-1760
EN	-1761
alen	-1762
▁aid	-1763
▁aller	-1764
urg	-1765
▁different	-1766
ivid	-1767
▁already	-1768
▁bo	-1769
ftware	-1770
▁bef	-1771
use	-1772
▁allen	-1773
▁Russ	-1774
▁without	-1775
hält	-1776
öl	-1777
lease	-1778
▁citiz	-1779
ismus	-1780
▁ben	-1781
bsite	-1782
ention	-1783
ispiel	-1784
▁Wor	-1785
wort	-1786
▁[[	-1787
schuss	-1788
cond	-1789
▁daß	-1790
▁mich	-1791
▁verschieden	-1792
▁att	-1793
▁Ital	-1794
▁meet	-1795
▁respons	-1796
lossen	-1797
▁Frage	-1798
chie	-1799
unter	-1800
▁eigen	-1801
ins	-1802
ists	-1803
▁opt	-1804
allen	-1805
▁Lage	-1806
handl	-1807
▁Kolle	-1808
fass	-1809
▁bro	-1810
▁grow	-1811
▁eing	-1812
mend	-1813
mb	-1814
▁darauf	-1815
▁gef	-1816
▁seiner	-1817
ante	-1818
ustom	-1819
ahre	-1820
affen	-1821
ica	-1822
folg	-1823
▁Med	-1824
▁ensure	-1825
aher	-1826
ablish	-1827
▁denn	-1828
▁Tran	-1829
▁ihren	-1830
▁energy	-1831
ilit	-1832
▁implement	-1833
▁legisl	-1834
ES	-1835
▁Zusammenarbeit	-1836
ünd	-1837
▁object	-1838
▁products	-1839
ves	-1840
▁exper	-1841
kunft	-1842
▁including	-1843
yn	-1844
▁ev	-1845
▁liegt	-1846
▁cor	-1847
▁Stand	-1848
▁able	-1849
▁Ro	-1850
igten	-1851
▁ref	-1852
reib	-1853
▁back	-1854
▁And	-1855
ope	-1856
▁inst	-1857
▁geb	-1858
▁areas	-1859
▁certain	-1860
▁further	-1861
▁bietet	-1862
▁To	-1863
▁proposal	-1864
▁Unterstütz	-1865
▁Aut	-1866
zess	-1867
▁Arbeits	-1868
▁small	-1869
▁bek	-1870
ums	-1871
▁gest	-1872
tend	-1873
ness	-1874
▁Invest	-1875
itive	-1876
zen	-1877
cr	-1878
dert	-1879
▁member	-1880
res	-1881
▁major	-1882
ccess	-1883
ether	-1884
▁hal	-1885
▁12	-1886
▁change	-1887
llt	-1888
▁Community	-1889
."	-1890
▁achie	-1891
▁dire	-1892
annt	-1893
fung	-1894
▁Möglichkeit	-1895
▁Tra	-1896
▁point	-1897
walt	-1898
▁Umwelt	-1899
▁data	-1900
▁Best	-1901
▁2009	-1902
▁voll	-1903
▁citizens	-1904
▁adv	-1905
ience	-1906
1.	-1907
▁machen	-1908
10	-1909
▁cost	-1910
ilt	-1911
▁wirtschaft	-1912
▁int	-1913
▁Them	-1914
markt	-1915
▁ze	-1916
▁repr	-1917
ample	-1918
▁viele	-1919
let	-1920
▁key	-1921
tem	-1922
▁pers	-1923
▁applic	-1924
▁fra	-1925
▁EUR	-1926
olid	-1927
iber	-1928
▁Min	-1929
omen	-1930
schaften	-1931
▁kle	-1932
los	-1933
unic	-1934
führt	-1935
▁establish	-1936
tain	-1937
ctions	-1938
▁Durch	-1939
▁insbesondere	-1940
▁weil	-1941
▁rules	-1942
ichten	-1943
▁deut	-1944
▁zurück	-1945
udget	-1946
gre	-1947
ierungs	-1948
".	-1949
▁Bank	-1950
▁Pol	-1951
▁zusammen	-1952
esellschaft	-1953
▁Unterstützung	-1954
other	-1955
abil	-1956
▁seit	-1957
▁dafür	-1958
lemen	-1959
abei	-1960
ren	-1961
spro	-1962
▁sozial	-1963
oten	-1964
▁Direct	-1965
▁Kommissar	-1966
ases	-1967
amer	-1968
heiten	-1969
punkt	-1970
okrat	-1971
▁Besch	-1972
fet	-1973
ross	-1974
▁fl	-1975
oren	-1976
halts	-1977
▁Proje	-1978
▁Bel	-1979
▁regard	-1980
▁Beit	-1981
▁Vorschlag	-1982
bed	-1983
▁bre	-1984
▁service	-1985
▁entsp	-1986
ziel	-1987
gleich	-1988
▁Länder	-1989
raph	-1990
▁som	-1991
inal	-1992
por	-1993
▁common	-1994
▁Politik	-1995
▁provide	-1996
▁Amer	-1997
lar	-1998
▁cann	-1999
▁Zug	-2000
tellen	-2001
▁Jahre	-2002
▁technolog	-2003
▁design	-2004
ordnung	-2005
▁Für	-2006
▁necess	-2007
▁put	-2008
atur	-2009
▁einige	-2010
▁allow	-2011
▁look	-2012
ason	-2013
hof	-2014
▁nun	-2015
▁Energie	-2016
ately	-2017
▁je	-2018
▁geht	-2019
▁issue	-2020
▁Pal	-2021
▁believe	-2022
ird	-2023
genommen	-2024
▁Bild	-2025
▁stat	-2026
lan	-2027
ivil	-2028
itäten	-2029
▁jetzt	-2030
▁think	-2031
▁allem	-2032
▁However	-2033
▁since	-2034
ahn	-2035
▁large	-2036
▁State	-2037
▁würde	-2038
In	-2039
vention	-2040
▁cannot	-2041
▁Änder	-2042
▁control	-2043
▁But	-2044
▁Deut	-2045
term	-2046
▁too	-2047
iving	-2048
▁That	-2049
▁China	-2050
0%	-2051
▁Ko	-2052
▁et	-2053
gangen	-2054
▁entw	-2055
▁three	-2056
▁ho	-2057
▁situation	-2058
▁consum	-2059
▁example	-2060
ec	-2061
ucht	-2062
▁Dienst	-2063
so	-2064
astr	-2065
▁protection	-2066
ting	-2067
olution	-2068
▁during	-2069
legt	-2070
▁2007	-2071
▁addition	-2072
ually	-2073
▁custom	-2074
▁erm	-2075
▁city	-2076
▁each	-2077
▁eng	-2078
▁health	-2079
▁Stadt	-2080
▁eas	-2081
utes	-2082
▁Zimmer	-2083
▁Hil	-2084
error	-2085
▁Mein	-2086
ktionen	-2087
ining	-2088
▁Serv	-2089
co	-2090
▁course	-2091
▁sicher	-2092
▁employ	-2093
▁cooperation	-2094
uge	-2095
▁special	-2096
▁Eine	-2097
▁far	-2098
▁modern	-2099
▁Dar	-2100
chnolog	-2101
amm	-2102
imes	-2103
▁individ	-2104
▁contrib	-2105
ather	-2106
igkeiten	-2107
▁Ur	-2108
ialog	-2109
▁begr	-2110
▁million	-2111
stellung	-2112
äm	-2113
amt	-2114
▁Da	-2115
ence	-2116
▁means	-2117
rän	-2118
ander	-2119
undheit	-2120
▁present	-2121
▁regional	-2122
▁agreement	-2123
▁security	-2124
mission	-2125
incip	-2126
gaben	-2127
▁25	-2128
▁bess	-2129
▁offers	-2130
blems	-2131
▁action	-2132
ek	-2133
uktur	-2134
ser	-2135
ditions	-2136
ements	-2137
▁taken	-2138
wendung	-2139
führung	-2140
▁Port	-2141
▁respect	-2142
▁Committee	-2143
▁|	-2144
▁bene	-2145
▁result	-2146
▁net	-2147
▁Richtlinie	-2148
uchen	-2149
▁außer	-2150
ars	-2151
▁während	-2152
ily	-2153
▁stehen	-2154
▁found	-2155
teilung	-2156
zieh	-2157
▁Entscheid	-2158
▁bin	-2159
leit	-2160
itiative	-2161
earch	-2162
bau	-2163
▁drei	-2164
▁discuss	-2165
reffen	-2166
▁problem	-2167
▁besonder	-2168
▁Eng	-2169
wirtschaft	-2170
▁stay	-2171
▁pract	-2172
▁sector	-2173
▁Regel	-2174
eu	-2175
▁2008	-2176
lect	-2177
gew	-2178
▁aff	-2179
ichter	-2180
▁quality	-2181
ämp	-2182
iod	-2183
iß	-2184
ising	-2185
▁question	-2186
ell	-2187
▁stud	-2188
ove	-2189
▁einfach	-2190
orts	-2191
▁princip	-2192
tellung	-2193
text	-2194
ache	-2195
falls	-2196
ling	-2197
ains	-2198
▁next	-2199
antwort	-2200
▁New	-2201
▁child	-2202
iety	-2203
▁komm	-2204
▁invol	-2205
uft	-2206
▁programme	-2207
vorsch	-2208
▁waren	-2209
ises	-2210
ners	-2211
▁debate	-2212
▁rece	-2213
ationen	-2214
ites	-2215
schied	-2216
▁Ländern	-2217
▁Cour	-2218
▁Weit	-2219
▁pay	-2220
▁Bo	-2221
▁benef	-2222
ash	-2223
▁region	-2224
▁Press	-2225
▁Kin	-2226
▁Wer	-2227
▁power	-2228
fäh	-2229
▁Spe	-2230
▁pop	-2231
▁wollen	-2232
anies	-2233
▁Schutz	-2234
gang	-2235
▁&	-2236
aterial	-2237
▁trade	-2238
▁With	-2239
▁Organ	-2240
▁Sh	-2241
low	-2242
obil	-2243
▁opport	-2244
kungen	-2245
▁erhalten	-2246
▁det	-2247
AT	-2248
ared	-2249
▁umf	-2250
umen	-2251
▁Form	-2252
glichen	-2253
▁tax	-2254
▁Lebens	-2255
▁non	-2256
▁United	-2257
orth	-2258
▁ask	-2259
▁che	-2260
▁budget	-2261
▁kommen	-2262
▁Ergeb	-2263
AN	-2264
häng	-2265
▁transport	-2266
▁Comp	-2267
ets	-2268
▁prior	-2269
▁day	-2270
▁necessary	-2271
▁state	-2272
schutz	-2273
▁build	-2274
anden	-2275
▁schon	-2276
ipp	-2277
▁commit	-2278
wards	-2279
▁aim	-2280
▁rooms	-2281
achst	-2282
zw	-2283
ule	-2284
▁Strateg	-2285
▁cult	-2286
▁Deb	-2287
ty	-2288
▁Herrn	-2289
aum	-2290
▁War	-2291
▁art	-2292
zept	-2293
▁Res	-2294
come	-2295
inen	-2296
▁success	-2297
bene	-2298
▁comple	-2299
▁better	-2300
▁mir	-2301
▁famil	-2302
rim	-2303
▁Verbrauch	-2304
lass	-2305
▁beim	-2306
bereich	-2307
ively	-2308
orte	-2309
spe	-2310
immung	-2311
▁Fall	-2312
▁Red	-2313
stellen	-2314
mework	-2315
▁democ	-2316
utzen	-2317
▁Recht	-2318
▁Programm	-2319
▁Schw	-2320
bt	-2321
▁Mo	-2322
▁research	-2323
▁ret	-2324
pend	-2325
▁Qu	-2326
ways	-2327
äd	-2328
omat	-2329
ritte	-2330
ugen	-2331
▁Group	-2332
eten	-2333
ify	-2334
▁ä	-2335
ingungen	-2336
▁companies	-2337
▁Parlaments	-2338
▁account	-2339
▁Und	-2340
alled	-2341
osition	-2342
isions	-2343
▁Stra	-2344
▁second	-2345
▁Gu	-2346
▁while	-2347
agen	-2348
aurant	-2349
▁schw	-2350
▁Forsch	-2351
fre	-2352
▁Regierung	-2353
opp	-2354
ilities	-2355
▁These	-2356
inistr	-2357
▁reform	-2358
▁current	-2359
▁Lis	-2360
ference	-2361
▁decision	-2362
▁ear	-2363
▁ersten	-2364
▁Vertrag	-2365
▁inde	-2366
lev	-2367
▁Proble	-2368
isher	-2369
▁doch	-2370
30	-2371
ogen	-2372
▁amend	-2373
▁Fragen	-2374
▁Zahl	-2375
▁lead	-2376
gestellt	-2377
▁Court	-2378
▁Tr	-2379
▁gewähr	-2380
▁Bedeut	-2381
▁proced	-2382
▁problems	-2383
▁give	-2384
▁issues	-2385
asch	-2386
▁colle	-2387
▁meine	-2388
▁wissen	-2389
gether	-2390
ning	-2391
▁however	-2392
▁La	-2393
▁el	-2394
onds	-2395
▁Gesch	-2396
ätze	-2397
▁needs	-2398
▁Verfüg	-2399
▁position	-2400
itor	-2401
▁mult	-2402
ands	-2403
▁given	-2404
▁du	-2405
▁€	-2406
▁based	-2407
▁14	-2408
ölk	-2409
▁histor	-2410
reaty	-2411
▁ander	-2412
▁Not	-2413
▁legal	-2414
ktor	-2415
uter	-2416
med	-2417
▁few	-2418
▁Komp	-2419
▁erforder	-2420
▁br	-2421
▁Bedeutung	-2422
▁USA	-2423
▁Lös	-2424
▁tun	-2425
▁weitere	-2426
ikan	-2427
▁address	-2428
ength	-2429
gehen	-2430
▁Rom	-2431
▁X	-2432
arch	-2433
▁inform	-2434
von	-2435
▁Rest	-2436
▁lim	-2437
▁erst	-2438
▁Ums	-2439
▁UN	-2440
▁besteht	-2441
▁Fort	-2442
▁fil	-2443
St	-2444
ustrie	-2445
indet	-2446
▁17	-2447
IN	-2448
ister	-2449
komm	-2450
▁Qual	-2451
gabe	-2452
spra	-2453
rodu	-2454
▁Rep	-2455
▁verw	-2456
kon	-2457
▁inner	-2458
▁16	-2459
▁fiel	-2460
kung	-2461
iation	-2462
raum	-2463
duc	-2464
▁System	-2465
▁ann	-2466
▁Lin	-2467
▁They	-2468
▁entwick	-2469
istance	-2470
hang	-2471
▁Fol	-2472
▁deren	-2473
ald	-2474
rechte	-2475
▁Problem	-2476
unde	-2477
▁Air	-2478
▁exist	-2479
▁dra	-2480
▁Just	-2481
▁Wirtschafts	-2482
urz	-2483
▁growth	-2484
▁2000	-2485
▁did	-2486
▁/	-2487
▁30	-2488
politik	-2489
▁conditions	-2490
▁period	-2491
cken	-2492
ikel	-2493
EC	-2494
▁hö	-2495
▁Spiel	-2496
ized	-2497
▁local	-2498
ott	-2499
row	-2500
▁innov	-2501
frastr	-2502
▁Vol	-2503
▁role	-2504
orgen	-2505
32	-2506
ron	-2507
▁letzten	-2508
▁thank	-2509
lands	-2510
▁read	-2511
öt	-2512
▁pass	-2513
▁International	-2514
▁comb	-2515
ingle	-2516
fra	-2517
ury	-2518
ged	-2519
uments	-2520
▁start	-2521
▁seinen	-2522
▁defin	-2523
▁interest	-2524
▁akt	-2525
▁Sw	-2526
uten	-2527
ordin	-2528
▁rep	-2529
▁unseren	-2530
▁gar	-2531
▁etwas	-2532
ufen	-2533
▁Schluss	-2534
▁def	-2535
▁less	-2536
▁Emp	-2537
▁gehör	-2538
▁basis	-2539
▁Afr	-2540
▁mov	-2541
▁Ob	-2542
▁come	-2543
rech	-2544
iar	-2545
hö	-2546
staat	-2547
▁Tag	-2548
tract	-2549
▁whether	-2550
▁groß	-2551
ategor	-2552
▁lassen	-2553
bild	-2554
▁abs	-2555
▁char	-2556
▁step	-2557
iges	-2558
▁located	-2559
▁tot	-2560
▁bestimm	-2561
▁progress	-2562
▁Co	-2563
ika	-2564
▁authorities	-2565
▁crit	-2566
▁What	-2567
reg	-2568
▁month	-2569
▁steht	-2570
▁worden	-2571
esehen	-2572
neh	-2573
▁legislation	-2574
▁working	-2575
▁Ausschuss	-2576
19	-2577
elf	-2578
eite	-2579
reen	-2580
burg	-2581
roll	-2582
▁geben	-2583
▁ur	-2584
▁dabei	-2585
sequ	-2586
griff	-2587
hörden	-2588
▁around	-2589
▁Gesundheit	-2590
agt	-2591
▁sagen	-2592
leistungen	-2593
▁statt	-2594
▁mus	-2595
▁specific	-2596
icient	-2597
▁soc	-2598
▁reach	-2599
fety	-2600
▁lea	-2601
▁food	-2602
▁politischen	-2603
▁2006	-2604
▁gra	-2605
▁company	-2606
▁systems	-2607
▁nor	-2608
▁Sa	-2609
▁short	-2610
bo	-2611
arten	-2612
▁24	-2613
▁government	-2614
▁terms	-2615
▁industry	-2616
ministr	-2617
▁könnte	-2618
by	-2619
▁together	-2620
enten	-2621
blick	-2622
▁instit	-2623
▁competition	-2624
▁concl	-2625
zü	-2626
▁2010	-2627
▁vo	-2628
▁negot	-2629
asser	-2630
atives	-2631
▁sehen	-2632
",	-2633
▁wäre	-2634
▁finanz	-2635
ervor	-2636
ohn	-2637
iter	-2638
▁För	-2639
ift	-2640
▁Deutsch	-2641
nell	-2642
osed	-2643
▁ble	-2644
▁review	-2645
▁why	-2646
▁Hilfe	-2647
eiten	-2648
arte	-2649
▁members	-2650
chan	-2651
▁Span	-2652
▁folgen	-2653
ON	-2654
outh	-2655
▁exce	-2656
ürlich	-2657
▁einmal	-2658
▁Stud	-2659
▁22	-2660
uppe	-2661
▁Was	-2662
▁pack	-2663
less	-2664
ünft	-2665
▁Namen	-2666
50	-2667
▁life	-2668
▁men	-2669
▁adopted	-2670
▁sk	-2671
▁private	-2672
▁projects	-2673
▁Treaty	-2674
fassung	-2675
▁ir	-2676
under	-2677
▁gegenüber	-2678
▁shall	-2679
imate	-2680
▁Ende	-2681
racht	-2682
ativen	-2683
▁another	-2684
▁When	-2685
▁11	-2686
▁approach	-2687
offe	-2688
ustain	-2689
▁gesam	-2690
▁Minister	-2691
icle	-2692
▁tradition	-2693
spolitik	-2694
▁bor	-2695
▁Mus	-2696
▁verbess	-2697
nehmer	-2698
▁production	-2699
klich	-2700
atch	-2701
▁1.	-2702
▁davon	-2703
▁zahl	-2704
3.	-2705
eder	-2706
▁become	-2707
,"	-2708
▁Auch	-2709
▁Mehr	-2710
▁particularly	-2711
▁dür	-2712
schein	-2713
▁Gew	-2714
▁Ser	-2715
▁organis	-2716
▁Mal	-2717
weg	-2718
träge	-2719
▁using	-2720
ünst	-2721
joy	-2722
inge	-2723
▁simp	-2724
▁hope	-2725
▁page	-2726
▁Germany	-2727
▁cho	-2728
▁regul	-2729
treten	-2730
icial	-2731
app	-2732
asing	-2733
▁hatte	-2734
ording	-2735
▁daher	-2736
▁Rolle	-2737
enzen	-2738
▁job	-2739
▁water	-2740
▁resour	-2741
ances	-2742
▁große	-2743
alle	-2744
▁Bus	-2745
▁näch	-2746
▁innerhalb	-2747
▁difficult	-2748
itäts	-2749
▁Verfügung	-2750
▁Region	-2751
▁activities	-2752
▁centre	-2753
▁represent	-2754
fang	-2755
▁Geschäft	-2756
ichtet	-2757
▁aufge	-2758
▁following	-2759
▁fav	-2760
▁particip	-2761
▁Ben	-2762
ca	-2763
▁management	-2764
▁hinaus	-2765
▁Partner	-2766
▁Probleme	-2767
▁framework	-2768
IT	-2769
▁Änderungs	-2770
cially	-2771
prü	-2772
▁Gegen	-2773
▁Haushalts	-2774
▁sens	-2775
xim	-2776
vious	-2777
▁sowohl	-2778
▁signific	-2779
▁stär	-2780
ifiz	-2781
letz	-2782
▁wish	-2783
▁writ	-2784
▁großen	-2785
▁third	-2786
ober	-2787
▁Bl	-2788
▁teil	-2789
▁Mad	-2790
▁reason	-2791
▁hervor	-2792
bour	-2793
▁2005	-2794
anken	-2795
▁enter	-2796
ichterst	-2797
▁continue	-2798
▁complete	-2799
▁Frank	-2800
▁2004	-2801
▁opin	-2802
▁general	-2803
verkehr	-2804
▁ident	-2805
▁Ph	-2806
dings	-2807
angen	-2808
isis	-2809
▁erklär	-2810
▁mar	-2811
▁zust	-2812
▁Jan	-2813
zentr	-2814
redit	-2815
▁erreichen	-2816
bei	-2817
▁individual	-2818
▁Frauen	-2819
▁Wahl	-2820
AR	-2821
▁met	-2822
rieden	-2823
▁subject	-2824
iend	-2825
▁Zukunft	-2826
▁Kr	-2827
zuf	-2828
▁Tur	-2829
▁internationalen	-2830
▁unterstützen	-2831
▁House	-2832
▁near	-2833
▁Fisch	-2834
▁conne	-2835
▁welche	-2836
of	-2837
▁Fun	-2838
▁Our	-2839
veral	-2840
▁Rück	-2841
▁Nor	-2842
▁verl	-2843
▁increase	-2844
▁Sk	-2845
▁staff	-2846
▁eben	-2847
▁ihnen	-2848
ails	-2849
IS	-2850
ultur	-2851
ender	-2852
druck	-2853
▁create	-2854
▁100	-2855
gricult	-2856
▁institutions	-2857
▁enc	-2858
▁economy	-2859
illionen	-2860
▁bew	-2861
oms	-2862
▁komp	-2863
arante	-2864
▁Weise	-2865
▁EC	-2866
ean	-2867
scheiden	-2868
▁close	-2869
▁Als	-2870
▁negoti	-2871
ennt	-2872
ification	-2873
kauf	-2874
▁notwend	-2875
▁struct	-2876
▁orig	-2877
roffen	-2878
ined	-2879
▁vote	-2880
ique	-2881
▁Umsetzung	-2882
eign	-2883
▁express	-2884
ults	-2885
▁partners	-2886
▁women	-2887
▁proposed	-2888
achten	-2889
▁stellen	-2890
▁press	-2891
▁verfü	-2892
asst	-2893
▁Seiten	-2894
lik	-2895
▁list	-2896
fehl	-2897
ieder	-2898
ipt	-2899
▁öffentlichen	-2900
▁Zugang	-2901
overn	-2902
▁call	-2903
rael	-2904
▁Weg	-2905
▁Staaten	-2906
▁San	-2907
ames	-2908
▁Directive	-2909
atte	-2910
ably	-2911
igent	-2912
▁relations	-2913
ived	-2914
▁children	-2915
▁derzeit	-2916
▁Verkehr	-2917
▁plan	-2918
IP	-2919
▁darüber	-2920
▁Haupt	-2921
ican	-2922
▁nationalen	-2923
▁elect	-2924
ierungen	-2925
▁Sozial	-2926
▁europäische	-2927
ocus	-2928
▁einzel	-2929
isches	-2930
▁sollen	-2931
ußen	-2932
ators	-2933
▁Zwe	-2934
oto	-2935
▁entfern	-2936
▁Disk	-2937
bon	-2938
sk	-2939
IB	-2940
▁run	-2941
▁show	-2942
▁Kinder	-2943
▁gener	-2944
hens	-2945
esse	-2946
ferenz	-2947
▁Verbraucher	-2948
▁always	-2949
▁happ	-2950
▁Fund	-2951
Re	-2952
▁Beispiel	-2953
▁educ	-2954
▁Fahr	-2955
▁deal	-2956
wand	-2957
▁beiden	-2958
recht	-2959
▁Viel	-2960
strument	-2961
tt	-2962
▁bank	-2963
▁Zusammenhang	-2964
▁bestehen	-2965
▁crisis	-2966
cel	-2967
ton	-2968
bet	-2969
▁care	-2970
▁Hier	-2971
2.	-2972
iken	-2973
▁eigenen	-2974
▁extre	-2975
▁German	-2976
▁Artikel	-2977
▁among	-2978
▁introdu	-2979
▁glaub	-2980
▁Transp	-2981
▁Beschäft	-2982
load	-2983
gemein	-2984
▁betr	-2985
heb	-2986
▁Aber	-2987
▁lo	-2988
▁Famil	-2989
▁doc	-2990
▁bar	-2991
▁Thema	-2992
IC	-2993
pre	-2994
tember	-2995
pecially	-2996
▁Entwicklungs	-2997
▁visit	-2998
▁strength	-2999
Pro	-3000
akes	-3001
▁whole	-3002
▁location	-3003
▁Seite	-3004
forderungen	-3005
▁occ	-3006
rift	-3007
ände	-3008
▁Verbess	-3009
▁Kollegen	-3010
dr	-3011
▁Gä	-3012
▁Nutz	-3013
igr	-3014
▁Klim	-3015
▁Fortsch	-3016
▁bl	-3017
▁towards	-3018
▁anal	-3019
▁Kap	-3020
▁entsprechen	-3021
▁Service	-3022
▁guarante	-3023
▁verschiedenen	-3024
▁hoch	-3025
ides	-3026
▁programm	-3027
oney	-3028
indung	-3029
▁El	-3030
▁line	-3031
▁brauch	-3032
▁etwa	-3033
immen	-3034
ody	-3035
uppen	-3036
achstum	-3037
▁dort	-3038
▁various	-3039
▁profess	-3040
▁break	-3041
weisen	-3042
wär	-3043
arian	-3044
▁sustain	-3045
▁Beihil	-3046
zogen	-3047
▁especially	-3048
▁policies	-3049
AS	-3050
▁arbeit	-3051
▁significant	-3052
▁klar	-3053
ifft	-3054
unehmen	-3055
▁verst	-3056
▁Kunden	-3057
yr	-3058
fast	-3059
▁zwar	-3060
üt	-3061
uff	-3062
▁rapp	-3063
▁weltw	-3064
▁Nov	-3065
igital	-3066
▁sett	-3067
lock	-3068
▁National	-3069
ograph	-3070
liegen	-3071
▁zus	-3072
▁him	-3073
▁making	-3074
ieten	-3075
pflicht	-3076
▁schnell	-3077
irm	-3078
til	-3079
▁langu	-3080
vorschriften	-3081
▁several	-3082
verfahren	-3083
üd	-3084
▁stark	-3085
unch	-3086
ksam	-3087
läge	-3088
▁Gleich	-3089
▁Berichterst	-3090
▁provided	-3091
▁General	-3092
schluss	-3093
▁Op	-3094
▁führen	-3095
▁Technolog	-3096
▁install	-3097
▁feat	-3098
▁Ass	-3099
sen	-3100
▁stellt	-3101
▁resources	-3102
mäß	-3103
▁include	-3104
uellen	-3105
▁besonders	-3106
ommend	-3107
▁implementation	-3108
▁investment	-3109
zeichnet	-3110
rolle	-3111
▁Wettbewerbs	-3112
ension	-3113
▁befindet	-3114
▁single	-3115
▁Park	-3116
▁Alle	-3117
▁strong	-3118
▁ant	-3119
usion	-3120
▁entfernt	-3121
▁perform	-3122
weis	-3123
▁done	-3124
▁bieten	-3125
▁markets	-3126
▁erste	-3127
▁vi	-3128
▁Mär	-3129
llent	-3130
▁remain	-3131
völk	-3132
zip	-3133
gän	-3134
▁Sc	-3135
▁Website	-3136
▁Mrs	-3137
ots	-3138
▁jeder	-3139
▁recog	-3140
▁poin	-3141
cher	-3142
▁serious	-3143
▁Grün	-3144
▁Millionen	-3145
▁rapporte	-3146
▁enjoy	-3147
OR	-3148
▁Can	-3149
▁No	-3150
▁matter	-3151
▁Austr	-3152
▁communic	-3153
▁Situation	-3154
▁effective	-3155
airs	-3156
▁Fest	-3157
▁Jul	-3158
▁least	-3159
ließen	-3160
ckt	-3161
▁price	-3162
aster	-3163
idence	-3164
▁safety	-3165
ban	-3166
▁begrü	-3167
▁Deutschland	-3168
▁old	-3169
▁Cl	-3170
frist	-3171
▁contact	-3172
▁top	-3173
wh	-3174
emp	-3175
▁total	-3176
▁focus	-3177
▁environmental	-3178
▁comfort	-3179
finden	-3180
▁land	-3181
▁II	-3182
▁proposals	-3183
▁fully	-3184
adies	-3185
▁turn	-3186
▁för	-3187
erien	-3188
asse	-3189
▁World	-3190
geord	-3191
▁forward	-3192
▁strategy	-3193
yl	-3194
▁sum	-3195
▁risk	-3196
anges	-3197
▁13	-3198
▁il	-3199
▁directive	-3200
itionen	-3201
liches	-3202
▁Jahres	-3203
▁Bezug	-3204
ücksicht	-3205
▁richt	-3206
▁Hotels	-3207
üssel	-3208
mat	-3209
werk	-3210
▁pot	-3211
▁bal	-3212
apan	-3213
▁lab	-3214
▁km	-3215
▁198	-3216
▁tour	-3217
▁typ	-3218
▁book	-3219
though	-3220
▁alles	-3221
ifen	-3222
ären	-3223
oor	-3224
▁konn	-3225
▁Förderung	-3226
produ	-3227
▁peace	-3228
▁Rates	-3229
▁dou	-3230
▁Priv	-3231
gelegt	-3232
abhäng	-3233
▁cover	-3234
▁administr	-3235
▁itself	-3236
▁concerned	-3237
▁weniger	-3238
/1	-3239
▁experience	-3240
kämp	-3241
ype	-3242
iberal	-3243
▁Flug	-3244
spl	-3245
▁Wind	-3246
▁vielen	-3247
▁pat	-3248
▁2003	-3249
ysteme	-3250
▁Gerichts	-3251
esiden	-3252
handlungen	-3253
▁meiner	-3254
▁Univers	-3255
gesehen	-3256
inter	-3257
▁Dieses	-3258
▁favour	-3259
wä	-3260
ught	-3261
▁costs	-3262
▁transpar	-3263
▁Europas	-3264
▁+	-3265
▁four	-3266
▁Sep	-3267
▁wirklich	-3268
▁2.	-3269
verb	-3270
uc	-3271
genda	-3272
▁50	-3273
▁Car	-3274
▁beh	-3275
DE	-3276
▁text	-3277
▁sup	-3278
▁möchten	-3279
▁Produkt	-3280
▁challen	-3281
▁Tod	-3282
▁gent	-3283
▁France	-3284
ony	-3285
▁ess	-3286
istr	-3287
▁000	-3288
▁Personen	-3289
iere	-3290
▁Kosten	-3291
unities	-3292
▁Portug	-3293
thing	-3294
▁Programme	-3295
▁entscheiden	-3296
▁Entscheidung	-3297
oment	-3298
▁milit	-3299
plan	-3300
▁Cont	-3301
▁post	-3302
▁Chr	-3303
▁value	-3304
▁society	-3305
▁indem	-3306
baren	-3307
▁event	-3308
iesen	-3309
ency	-3310
▁kommt	-3311
ziehungen	-3312
▁Binnen	-3313
▁field	-3314
linien	-3315
ostel	-3316
atten	-3317
▁Char	-3318
▁opinion	-3319
ropri	-3320
wirkungen	-3321
▁function	-3322
sweise	-3323
ilater	-3324
▁Plan	-3325
▁hät	-3326
▁often	-3327
uropa	-3328
ches	-3329
ival	-3330
▁Kons	-3331
▁Geld	-3332
▁verbunden	-3333
stant	-3334
▁star	-3335
▁fast	-3336
▁More	-3337
ided	-3338
▁gewährle	-3339
TO	-3340
ai	-3341
▁unterstützt	-3342
▁recommend	-3343
amental	-3344
▁vorgesch	-3345
▁dest	-3346
▁money	-3347
ric	-3348
weil	-3349
annten	-3350
▁Spra	-3351
▁capital	-3352
word	-3353
▁Pe	-3354
RO	-3355
▁mot	-3356
ding	-3357
gesetzt	-3358
▁col	-3359
▁Ebene	-3360
▁weiterhin	-3361
ühren	-3362
▁positive	-3363
▁Israel	-3364
▁wesent	-3365
▁once	-3366
▁Woch	-3367
▁Ziele	-3368
side	-3369
▁really	-3370
▁Preis	-3371
▁targe	-3372
▁context	-3373
▁bringen	-3374
▁personal	-3375
1,	-3376
/200	-3377
▁Verwalt	-3378
ully	-3379
▁provides	-3380
▁let	-3381
▁away	-3382
▁ans	-3383
▁gilt	-3384
kre	-3385
▁Gäste	-3386
met	-3387
▁Verfahren	-3388
▁Projekt	-3389
▁Software	-3390
▁improve	-3391
▁Organisation	-3392
ething	-3393
▁sug	-3394
▁meisten	-3395
pos	-3396
ood	-3397
lean	-3398
lung	-3399
schließlich	-3400
▁site	-3401
onger	-3402
fect	-3403
esidency	-3404
iers	-3405
▁Demokrat	-3406
▁port	-3407
the	-3408
zeitig	-3409
▁until	-3410
▁automat	-3411
▁Tour	-3412
▁verein	-3413
▁Rechte	-3414
▁September	-3415
▁Geschäfts	-3416
▁efforts	-3417
mail	-3418
▁opportunity	-3419
▁results	-3420
istan	-3421
▁assess	-3422
▁politische	-3423
▁understand	-3424
erecht	-3425
thers	-3426
▁erwar	-3427
tragen	-3428
▁ple	-3429
atory	-3430
▁months	-3431
cen	-3432
frage	-3433
▁Grundlage	-3434
▁agricult	-3435
▁dom	-3436
wach	-3437
aps	-3438
▁obl	-3439
auer	-3440
▁besser	-3441
▁online	-3442
ächst	-3443
▁term	-3444
overnment	-3445
▁share	-3446
▁mind	-3447
▁excellent	-3448
reicht	-3449
▁2002	-3450
▁Nicht	-3451
▁regions	-3452
▁ve	-3453
stück	-3454
▁direkt	-3455
▁Hö	-3456
▁network	-3457
oung	-3458
▁My	-3459
▁mean	-3460
aged	-3461
▁range	-3462
voll	-3463
haus	-3464
▁Hinter	-3465
▁euro	-3466
▁application	-3467
omb	-3468
▁town	-3469
ued	-3470
▁home	-3471
ächlich	-3472
SE	-3473
racy	-3474
mitted	-3475
▁recht	-3476
▁impact	-3477
wendet	-3478
li	-3479
wohl	-3480
▁natürlich	-3481
▁Lie	-3482
reiche	-3483
▁employment	-3484
ativ	-3485
▁Kultur	-3486
▁gentlemen	-3487
fs	-3488
stra	-3489
zustellen	-3490
▁something	-3491
▁treat	-3492
▁civil	-3493
▁beaut	-3494
ports	-3495
▁tro	-3496
▁Den	-3497
▁check	-3498
▁ebenfalls	-3499
armon	-3500
▁Uhr	-3501
▁Rei	-3502
▁tool	-3503
▁Leben	-3504
▁Kön	-3505
▁Behörden	-3506
sprache	-3507
igation	-3508
ino	-3509
▁Zus	-3510
▁Cent	-3511
DS	-3512
▁she	-3513
bank	-3514
▁led	-3515
▁Wel	-3516
▁offen	-3517
▁situ	-3518
▁name	-3519
ona	-3520
stimmung	-3521
iled	-3522
esten	-3523
▁website	-3524
▁yet	-3525
chs	-3526
▁Ihrer	-3527
▁essential	-3528
▁Met	-3529
▁education	-3530
ians	-3531
▁Janu	-3532
ittle	-3533
▁Deshalb	-3534
▁rather	-3535
▁freed	-3536
▁standards	-3537
▁bzw	-3538
▁erfolg	-3539
▁spiel	-3540
atis	-3541
▁Lösung	-3542
▁Integr	-3543
▁Prior	-3544
▁walk	-3545
▁schaffen	-3546
äuf	-3547
▁Soc	-3548
▁qual	-3549
reiben	-3550
▁Kü	-3551
bare	-3552
▁dev	-3553
▁increasing	-3554
ume	-3555
ktr	-3556
quis	-3557
▁appropri	-3558
▁recent	-3559
▁rapporteur	-3560
▁family	-3561
ublik	-3562
▁terror	-3563
igte	-3564
legenheit	-3565
▁pur	-3566
change	-3567
mos	-3568
unkte	-3569
▁Außer	-3570
▁material	-3571
▁might	-3572
▁Verantwort	-3573
▁taking	-3574
▁daran	-3575
▁welcome	-3576
▁(1	-3577
▁accept	-3578
haltung	-3579
▁Bas	-3580
▁software	-3581
▁Schl	-3582
▁Natur	-3583
▁resolution	-3584
oting	-3585
▁erziel	-3586
▁meeting	-3587
▁App	-3588
▁Auswirkungen	-3589
ledge	-3590
ization	-3591
▁beach	-3592
ählen	-3593
lei	-3594
▁Zust	-3595
▁extrem	-3596
▁Frei	-3597
▁ihrem	-3598
imal	-3599
▁Fil	-3600
▁Off	-3601
▁Pra	-3602
▁going	-3603
▁Öff	-3604
schn	-3605
▁importance	-3606
▁unterschied	-3607
kämpfung	-3608
cript	-3609
▁refer	-3610
▁apart	-3611
▁zusätz	-3612
arbeiten	-3613
▁Wettbewerb	-3614
ideo	-3615
ested	-3616
stadt	-3617
AL	-3618
▁nah	-3619
▁Bevölk	-3620
▁keep	-3621
▁Strategie	-3622
int	-3623
▁institution	-3624
▁customers	-3625
▁Bereichen	-3626
eits	-3627
istic	-3628
ländern	-3629
▁Regionen	-3630
▁technology	-3631
▁strengthen	-3632
telle	-3633
▁Anwendung	-3634
▁vorgeschlagen	-3635
▁di	-3636
▁Ir	-3637
▁Dieser	-3638
▁training	-3639
▁Klima	-3640
▁Stellung	-3641
▁things	-3642
AP	-3643
▁tre	-3644
na	-3645
▁kurz	-3646
▁zuständ	-3647
andid	-3648
▁Sub	-3649
gency	-3650
igungs	-3651
▁kind	-3652
▁tas	-3653
▁EIB	-3654
▁illeg	-3655
▁darin	-3656
▁Gree	-3657
▁Ange	-3658
altung	-3659
▁creat	-3660
▁gute	-3661
immungen	-3662
▁Gra	-3663
▁clos	-3664
▁cases	-3665
▁einigen	-3666
richtung	-3667
▁parties	-3668
anst	-3669
▁mention	-3670
▁due	-3671
▁Meinung	-3672
▁having	-3673
fähigkeit	-3674
▁required	-3675
anced	-3676
▁Members	-3677
ratic	-3678
▁dist	-3679
▁Gar	-3680
▁hard	-3681
olf	-3682
ption	-3683
▁pub	-3684
▁versch	-3685
▁Tele	-3686
▁Uns	-3687
alten	-3688
ulture	-3689
▁Industrie	-3690
▁beispiel	-3691
▁deliver	-3692
wahl	-3693
▁apply	-3694
▁Früh	-3695
▁days	-3696
iendly	-3697
za	-3698
▁Fern	-3699
▁fair	-3700
most	-3701
▁feel	-3702
▁Antw	-3703
ison	-3704
▁presen	-3705
▁Verbesserung	-3706
lt	-3707
▁dessen	-3708
unik	-3709
ground	-3710
orn	-3711
Pr	-3712
▁Schul	-3713
▁return	-3714
▁internal	-3715
entrum	-3716
▁flex	-3717
▁Bem	-3718
ennen	-3719
▁nehmen	-3720
▁distrib	-3721
nete	-3722
ethod	-3723
▁subs	-3724
▁erne	-3725
hnt	-3726
ager	-3727
▁sogar	-3728
wärt	-3729
▁principle	-3730
▁road	-3731
▁programmes	-3732
▁currently	-3733
▁Abgeord	-3734
▁November	-3735
▁Develop	-3736
fully	-3737
▁Groß	-3738
ying	-3739
▁developing	-3740
aden	-3741
▁little	-3742
aging	-3743
irc	-3744
▁viol	-3745
half	-3746
antrag	-3747
obile	-3748
AC	-3749
▁gemeinsamen	-3750
▁Institution	-3751
An	-3752
▁views	-3753
-1	-3754
▁Struktur	-3755
▁responsible	-3756
▁agree	-3757
bereit	-3758
▁needed	-3759
fert	-3760
ours	-3761
▁big	-3762
fall	-3763
▁groups	-3764
▁etc	-3765
▁class	-3766
▁sozialen	-3767
▁Dok	-3768
/0	-3769
▁above	-3770
▁called	-3771
▁seem	-3772
▁absol	-3773
▁Weitere	-3774
▁protect	-3775
▁excl	-3776
uell	-3777
▁Ira	-3778
▁wichtige	-3779
▁pa	-3780
▁Verpflicht	-3781
Mit	-3782
▁Ihren	-3783
igration	-3784
▁fight	-3785
uh	-3786
▁seinem	-3787
af	-3788
ingen	-3789
5%	-3790
▁anges	-3791
▁Gesellschaft	-3792
▁potential	-3793
inks	-3794
▁nachhalt	-3795
▁Tür	-3796
▁IP	-3797
▁aufgrund	-3798
▁greater	-3799
▁gemacht	-3800
▁genau	-3801
▁Japan	-3802
▁vier	-3803
▁Sol	-3804
▁sei	-3805
▁würden	-3806
ünf	-3807
▁deutlich	-3808
prochen	-3809
▁Stat	-3810
pril	-3811
iben	-3812
▁wahr	-3813
▁pol	-3814
aper	-3815
ops	-3816
▁beit	-3817
▁One	-3818
▁Heraus	-3819
▁Ort	-3820
umente	-3821
▁content	-3822
ziehen	-3823
▁Außerdem	-3824
▁behalf	-3825
▁climate	-3826
▁consult	-3827
iting	-3828
▁past	-3829
-0	-3830
EM	-3831
▁responsibility	-3832
ex	-3833
▁Binnenmarkt	-3834
▁across	-3835
organ	-3836
gesamt	-3837
▁29	-3838
▁Prozess	-3839
uth	-3840
▁Berlin	-3841
▁Erfahr	-3842
▁bekannt	-3843
EL	-3844
▁Gerichtshof	-3845
amb	-3846
▁beispielsweise	-3847
▁light	-3848
▁dürfen	-3849
auss	-3850
▁young	-3851
roso	-3852
▁points	-3853
▁Tats	-3854
▁makes	-3855
▁Forschung	-3856
▁lar	-3857
ales	-3858
▁Steuer	-3859
▁Per	-3860
▁funds	-3861
benso	-3862
▁central	-3863
▁times	-3864
ada	-3865
▁Ris	-3866
▁stärk	-3867
▁handelt	-3868
▁achieve	-3869
▁Luft	-3870
▁others	-3871
▁Reihe	-3872
▁After	-3873
unds	-3874
▁stre	-3875
leicht	-3876
▁nächsten	-3877
▁Kamp	-3878
▁Wachstum	-3879
▁sw	-3880
sh	-3881
▁Ansicht	-3882
▁concerns	-3883
▁Belg	-3884
uz	-3885
▁Jun	-3886
▁along	-3887
▁negotiations	-3888
▁prevent	-3889
▁ihm	-3890
▁umfassen	-3891
▁left	-3892
▁bitte	-3893
//	-3894
▁Bedingungen	-3895
hes	-3896
▁heart	-3897
▁requirements	-3898
teile	-3899
ana	-3900
ira	-3901
▁Wieder	-3902
▁Lux	-3903
▁Dec	-3904
▁constru	-3905
,000	-3906
▁infl	-3907
onstr	-3908
▁Text	-3909
rieg	-3910
▁gehen	-3911
ufact	-3912
▁sour	-3913
▁Frankreich	-3914
▁encour	-3915
utzt	-3916
isc	-3917
kra	-3918
▁exam	-3919
fonds	-3920
ending	-3921
▁Do	-3922
://	-3923
▁imm	-3924
▁jeden	-3925
▁Vertre	-3926
▁log	-3927
▁vollständ	-3928
▁keinen	-3929
▁Innov	-3930
▁Handel	-3931
▁Sec	-3932
▁solution	-3933
aurants	-3934
▁monitor	-3935
cent	-3936
nehm	-3937
▁charac	-3938
▁building	-3939
▁Reform	-3940
iellen	-3941
▁könnten	-3942
▁Außen	-3943
▁existing	-3944
ee	-3945
▁Dialog	-3946
▁low	-3947
▁ihn	-3948
▁betrifft	-3949
länder	-3950
▁Wasser	-3951
▁ü	-3952
ench	-3953
▁relev	-3954
▁easy	-3955
ternal	-3956
mosph	-3957
▁27	-3958
ienste	-3959
ämlich	-3960
▁fish	-3961
▁joint	-3962
▁adopt	-3963
▁force	-3964
▁Einz	-3965
▁minutes	-3966
▁nie	-3967
go	-3968
▁rate	-3969
pected	-3970
wür	-3971
▁link	-3972
▁quite	-3973
▁procedure	-3974
▁moder	-3975
The	-3976
folgen	-3977
▁Pat	-3978
▁Wert	-3979
▁Ju	-3980
▁Russia	-3981
▁April	-3982
▁Handels	-3983
▁prices	-3984
▁Paris	-3985
ritten	-3986
▁ladies	-3987
60	-3988
▁ern	-3989
▁Vorschläge	-3990
35	-3991
▁entire	-3992
▁nämlich	-3993
▁version	-3994
▁sl	-3995
▁standard	-3996
mitteln	-3997
cies	-3998
such	-3999
▁Leist	-4000
▁nutzen	-4001
▁final	-4002
läss	-4003
▁May	-4004
istet	-4005
ringen	-4006
▁demand	-4007
▁pages	-4008
maßnahmen	-4009
▁Betrie	-4010
▁method	-4011
▁technical	-4012
▁Sel	-4013
▁maintain	-4014
▁Trans	-4015
▁regulation	-4016
▁Produkte	-4017
▁dialog	-4018
äter	-4019
▁Kar	-4020
▁Netz	-4021
▁Leit	-4022
▁objectives	-4023
▁solche	-4024
▁2001	-4025
iveness	-4026
▁Rechn	-4027
zimmer	-4028
▁workers	-4029
▁fundamental	-4030
lies	-4031
▁cla	-4032
▁benöt	-4033
▁Gesetz	-4034
lle	-4035
▁mach	-4036
▁kosten	-4037
geln	-4038
▁week	-4039
erst	-4040
▁Restaurant	-4041
▁ja	-4042
orted	-4043
mitt	-4044
▁mag	-4045
▁Nä	-4046
oper	-4047
▁Entschließ	-4048
▁Imp	-4049
▁Dank	-4050
▁attention	-4051
▁gemeinsame	-4052
▁ideal	-4053
▁Book	-4054
▁park	-4055
formen	-4056
▁Staats	-4057
ured	-4058
▁Hintergrund	-4059
onen	-4060
ellen	-4061
▁Interesse	-4062
▁indic	-4063
eutet	-4064
enken	-4065
▁never	-4066
▁carr	-4067
handlung	-4068
gern	-4069
einander	-4070
▁facilities	-4071
hem	-4072
missions	-4073
▁Krit	-4074
isiert	-4075
ceed	-4076
lied	-4077
ielle	-4078
▁Gemeinschafts	-4079
▁sta	-4080
üsse	-4081
▁mer	-4082
▁fa	-4083
▁Sitz	-4084
▁Qualität	-4085
▁speak	-4086
▁sure	-4087
arf	-4088
▁rad	-4089
▁darf	-4090
unächst	-4091
hend	-4092
▁gesagt	-4093
▁König	-4094
stehen	-4095
▁natural	-4096
ette	-4097
▁brauchen	-4098
val	-4099
ams	-4100
▁analys	-4101
▁Meer	-4102
▁Ide	-4103
▁additional	-4104
gesellschaft	-4105
▁gelten	-4106
affung	-4107
▁Ag	-4108
▁Dam	-4109
▁sustainable	-4110
▁erfü	-4111
▁bedeutet	-4112
▁Italien	-4113
▁ak	-4114
▁assistance	-4115
▁head	-4116
▁Mill	-4117
▁Brit	-4118
▁Kraft	-4119
▁capac	-4120
ari	-4121
▁aud	-4122
gebung	-4123
bildung	-4124
▁erreicht	-4125
▁manufact	-4126
onnen	-4127
lück	-4128
▁Wissen	-4129
OM	-4130
änger	-4131
▁allerdings	-4132
▁mass	-4133
▁Punkt	-4134
▁heraus	-4135
▁amendments	-4136
▁Parte	-4137
▁publish	-4138
▁Prot	-4139
richtungen	-4140
▁Erweit	-4141
mut	-4142
iner	-4143
▁ren	-4144
▁contract	-4145
▁involved	-4146
▁unver	-4147
▁longer	-4148
▁gerade	-4149
▁Demokratie	-4150
▁Development	-4151
ulgar	-4152
alität	-4153
▁Vorschriften	-4154
▁beginn	-4155
uelle	-4156
äss	-4157
spruch	-4158
▁cultural	-4159
▁vol	-4160
▁Such	-4161
▁known	-4162
▁Presidency	-4163
▁Terror	-4164
▁erforderlich	-4165
▁abge	-4166
▁jud	-4167
▁berücksicht	-4168
ttp	-4169
▁Vereinigten	-4170
trie	-4171
rechts	-4172
▁Verordnung	-4173
▁Buch	-4174
▁previous	-4175
▁Mio	-4176
▁Beitrag	-4177
▁decisions	-4178
▁Windows	-4179
▁Sicherheits	-4180
▁http	-4181
▁TV	-4182
▁foreign	-4183
▁changes	-4184
iful	-4185
▁gesamten	-4186
▁flo	-4187
▁21	-4188
▁Cor	-4189
▁safe	-4190
▁freedom	-4191
US	-4192
▁Spain	-4193
▁künft	-4194
▁Ins	-4195
5.	-4196
▁Menschenrechte	-4197
mark	-4198
▁Beziehungen	-4199
eden	-4200
▁persön	-4201
▁Aff	-4202
▁questions	-4203
large	-4204
▁jeweil	-4205
▁French	-4206
▁Landes	-4207
▁Hoch	-4208
glied	-4209
▁Justice	-4210
▁Inform	-4211
▁though	-4212
▁weltweit	-4213
▁user	-4214
▁aspect	-4215
best	-4216
▁(+	-4217
▁gegeben	-4218
▁clean	-4219
iten	-4220
folgt	-4221
iqu	-4222
inzip	-4223
▁arch	-4224
▁clearly	-4225
▁breakfast	-4226
▁unserem	-4227
▁altern	-4228
▁related	-4229
leben	-4230
tended	-4231
▁Christ	-4232
▁Stabil	-4233
▁First	-4234
▁upon	-4235
▁disk	-4236
prise	-4237
mals	-4238
fil	-4239
▁besten	-4240
▁consumers	-4241
▁neu	-4242
teilt	-4243
▁ö	-4244
▁angenommen	-4245
neten	-4246
▁states	-4247
ief	-4248
▁Fischere	-4249
ones	-4250
▁Aspe	-4251
ania	-4252
▁Hinblick	-4253
▁Gebiet	-4254
acy	-4255
▁Vertrags	-4256
▁interests	-4257
medi	-4258
▁Article	-4259
▁allgemein	-4260
▁Schlussel	-4261
▁deshalb	-4262
▁sele	-4263
ode	-4264
self	-4265
▁circ	-4266
iste	-4267
ging	-4268
▁launch	-4269
▁table	-4270
ires	-4271
ällen	-4272
▁don	-4273
ienen	-4274
▁cross	-4275
▁angem	-4276
▁Investitionen	-4277
züglich	-4278
▁charge	-4279
lauf	-4280
barkeit	-4281
▁See	-4282
▁Auss	-4283
▁zuf	-4284
▁Fortschritte	-4285
▁farm	-4286
▁Kontakt	-4287
hib	-4288
▁according	-4289
arbeitung	-4290
rank	-4291
▁appropriate	-4292
▁ermöglich	-4293
▁veröffent	-4294
-,	-4295
▁wenig	-4296
elves	-4297
▁fünf	-4298
now	-4299
▁erheb	-4300
äus	-4301
▁appear	-4302
▁Ergebnis	-4303
▁gemeinsam	-4304
▁nichts	-4305
ynam	-4306
▁lear	-4307
estern	-4308
▁objective	-4309
erous	-4310
▁moment	-4311
▁bath	-4312
abon	-4313
entw	-4314
illa	-4315
unternehmen	-4316
▁request	-4317
▁mark	-4318
▁amb	-4319
usst	-4320
▁Web	-4321
▁macht	-4322
▁Verhandlungen	-4323
▁Portugal	-4324
▁Initiative	-4325
▁liegen	-4326
▁verste	-4327
▁Lisbon	-4328
▁test	-4329
▁quick	-4330
▁verwendet	-4331
▁tem	-4332
▁initi	-4333
▁funding	-4334
▁Iran	-4335
ables	-4336
▁words	-4337
▁Fehl	-4338
▁Italy	-4339
deut	-4340
▁tele	-4341
▁parl	-4342
▁South	-4343
key	-4344
▁developed	-4345
conomic	-4346
▁recogn	-4347
▁einges	-4348
▁einzelnen	-4349
▁Ant	-4350
lassen	-4351
öglichen	-4352
ctive	-4353
▁thems	-4354
▁sea	-4355
frei	-4356
▁erhö	-4357
minister	-4358
has	-4359
ürz	-4360
▁themselves	-4361
ims	-4362
ump	-4363
ließlich	-4364
ilar	-4365
▁arr	-4366
▁Möglichkeiten	-4367
2)	-4368
▁simply	-4369
jen	-4370
hing	-4371
▁Liss	-4372
▁Prü	-4373
frastruct	-4374
▁Pak	-4375
orge	-4376
▁night	-4377
2,	-4378
▁Inst	-4379
▁West	-4380
orm	-4381
va	-4382
▁enthalten	-4383
▁prep	-4384
ller	-4385
▁caus	-4386
▁five	-4387
▁bevor	-4388
▁40	-4389
▁contain	-4390
lang	-4391
▁mor	-4392
▁directly	-4393
▁Will	-4394
gliche	-4395
▁perfect	-4396
min	-4397
▁democracy	-4398
▁Angeb	-4399
▁Frieden	-4400
▁verbessern	-4401
ception	-4402
unst	-4403
klärung	-4404
▁197	-4405
▁corre	-4406
▁decided	-4407
▁pres	-4408
▁bisher	-4409
bahn	-4410
▁kont	-4411
wan	-4412
▁broad	-4413
▁Daher	-4414
berg	-4415
▁language	-4416
▁fort	-4417
ither	-4418
▁wegen	-4419
▁Jahrh	-4420
▁staat	-4421
lant	-4422
istischen	-4423
▁official	-4424
▁lok	-4425
▁bedeut	-4426
▁Acc	-4427
gegen	-4428
▁Integration	-4429
6.	-4430
▁Madam	-4431
▁digital	-4432
▁internationale	-4433
▁zie	-4434
▁thus	-4435
▁benefit	-4436
▁emer	-4437
see	-4438
▁WTO	-4439
▁expect	-4440
▁betreffen	-4441
▁Lissabon	-4442
▁Doch	-4443
▁Fraktion	-4444
serv	-4445
▁übern	-4446
▁mat	-4447
ehen	-4448
pendent	-4449
▁Ergebnisse	-4450
EG	-4451
Ver	-4452
▁extra	-4453
▁Nähe	-4454
▁Nord	-4455
▁Program	-4456
4.	-4457
▁bit	-4458
älle	-4459
▁demonstr	-4460
bru	-4461
ipf	-4462
eff	-4463
▁Erfolg	-4464
▁talk	-4465
alien	-4466
ished	-4467
▁via	-4468
teilen	-4469
▁nature	-4470
3,	-4471
▁Bevölkerung	-4472
▁Funktion	-4473
▁established	-4474
date	-4475
drück	-4476
▁maxim	-4477
▁oft	-4478
uk	-4479
▁Verantwortung	-4480
40	-4481
aly	-4482
ired	-4483
▁enable	-4484
▁fördern	-4485
▁prec	-4486
▁please	-4487
▁ed	-4488
▁wichtigsten	-4489
▁Go	-4490
▁concerning	-4491
erc	-4492
▁Date	-4493
▁camp	-4494
lling	-4495
▁population	-4496
▁Selbst	-4497
▁integration	-4498
▁Aussprache	-4499
▁Market	-4500
▁Von	-4501
▁package	-4502
▁Kolleg	-4503
▁Schaffung	-4504
▁jobs	-4505
room	-4506
▁Debatte	-4507
atul	-4508
▁Schritt	-4509
▁1999	-4510
▁house	-4511
▁Liste	-4512
hren	-4513
sichtlich	-4514
▁separ	-4515
vo	-4516
zös	-4517
▁character	-4518
▁rela	-4519
jahr	-4520
-20	-4521
EU	-4522
haben	-4523
▁Lond	-4524
▁early	-4525
▁enough	-4526
ässt	-4527
las	-4528
▁By	-4529
gu	-4530
sterreich	-4531
▁findet	-4532
▁Abstimmung	-4533
▁ermöglicht	-4534
▁Präsidentin	-4535
▁Aktiv	-4536
bedingungen	-4537
▁Einsatz	-4538
▁determ	-4539
auen	-4540
haft	-4541
nissen	-4542
izien	-4543
orr	-4544
▁Benutz	-4545
▁halten	-4546
vement	-4547
▁Ukra	-4548
▁side	-4549
▁Beschäftigung	-4550
▁mess	-4551
▁amount	-4552
kr	-4553
▁Sal	-4554
ehm	-4555
zeigt	-4556
▁initiative	-4557
▁lack	-4558
▁lange	-4559
▁interess	-4560
ij	-4561
vert	-4562
▁beautiful	-4563
hung	-4564
▁Besuch	-4565
loyment	-4566
▁Further	-4567
▁verstär	-4568
▁created	-4569
▁Öffent	-4570
▁Diskuss	-4571
▁Nieder	-4572
verständ	-4573
▁Cas	-4574
gangenen	-4575
▁Regional	-4576
▁Einzel	-4577
▁demokrat	-4578
▁release	-4579
rieben	-4580
fragen	-4581
▁3.	-4582
zif	-4583
cke	-4584
▁live	-4585
ikt	-4586
iedr	-4587
▁Republic	-4588
▁gehört	-4589
▁keyword	-4590
äsent	-4591
▁notwendig	-4592
▁Back	-4593
▁Home	-4594
bel	-4595
▁Mobil	-4596
▁Mark	-4597
▁soon	-4598
struments	-4599
▁held	-4600
▁agreed	-4601
▁Bekämpfung	-4602
▁Government	-4603
crib	-4604
ichen	-4605
▁station	-4606
würd	-4607
▁Mitglieder	-4608
adurch	-4609
abel	-4610
▁assoc	-4611
ändert	-4612
▁guarantee	-4613
▁tats	-4614
▁levels	-4615
frastruktur	-4616
▁glaube	-4617
▁solutions	-4618
▁Beg	-4619
oid	-4620
▁Far	-4621
▁Zur	-4622
▁fail	-4623
▁either	-4624
▁Bau	-4625
▁enlarge	-4626
▁majority	-4627
▁promote	-4628
▁Bulgar	-4629
▁Institutionen	-4630
▁Aktion	-4631
▁wider	-4632
▁capacity	-4633
stoff	-4634
▁actions	-4635
▁infrastruct	-4636
▁join	-4637
indest	-4638
▁Spanien	-4639
▁u	-4640
ama	-4641
▁hatten	-4642
▁knowledge	-4643
ork	-4644
action	-4645
▁document	-4646
ommod	-4647
▁insgesamt	-4648
▁Stre	-4649
▁Lat	-4650
▁rund	-4651
▁Kontrolle	-4652
omfort	-4653
▁intens	-4654
▁priority	-4655
llig	-4656
yle	-4657
▁bleiben	-4658
▁weiteren	-4659
anze	-4660
▁almost	-4661
▁Herren	-4662
ube	-4663
▁Design	-4664
▁internet	-4665
▁zeigt	-4666
prä	-4667
▁London	-4668
▁outside	-4669
▁Pf	-4670
sitz	-4671
aler	-4672
ET	-4673
OS	-4674
▁ago	-4675
▁dialogue	-4676
irt	-4677
wertung	-4678
pid	-4679
▁Flugh	-4680
▁Social	-4681
ätigkeit	-4682
ült	-4683
▁events	-4684
▁comes	-4685
▁North	-4686
▁durchge	-4687
▁Aug	-4688
▁werde	-4689
▁higher	-4690
ense	-4691
spräsident	-4692
▁schwier	-4693
rimin	-4694
▁history	-4695
▁führt	-4696
▁included	-4697
▁later	-4698
▁verfügt	-4699
▁reserv	-4700
▁throughout	-4701
▁höch	-4702
▁Barcel	-4703
ählt	-4704
usive	-4705
ients	-4706
▁takes	-4707
dom	-4708
▁Raum	-4709
▁Hers	-4710
▁active	-4711
▁1,	-4712
oph	-4713
▁betra	-4714
icien	-4715
:00	-4716
onse	-4717
wegen	-4718
urf	-4719
▁agreements	-4720
ips	-4721
▁supply	-4722
▁disp	-4723
▁Erweiterung	-4724
▁sag	-4725
▁univers	-4726
▁holid	-4727
▁funktion	-4728
▁beteil	-4729
uren	-4730
DP	-4731
▁Febru	-4732
▁file	-4733
▁AG	-4734
▁Interessen	-4735
▁billion	-4736
idd	-4737
▁optim	-4738
▁Bü	-4739
▁Kat	-4740
▁Blick	-4741
▁comfortable	-4742
undert	-4743
▁sy	-4744
▁communication	-4745
▁Führ	-4746
▁practice	-4747
eless	-4748
▁suggest	-4749
▁Dr	-4750
ogra	-4751
▁äußer	-4752
änden	-4753
onn	-4754
▁increased	-4755
erseits	-4756
▁commitment	-4757
▁verschiedene	-4758
isieren	-4759
▁Mich	-4760
▁Mitarbeit	-4761
▁reduce	-4762
wertungen	-4763
▁users	-4764
▁mechan	-4765
atisf	-4766
▁Informations	-4767
ences	-4768
▁cal	-4769
▁nam	-4770
merksam	-4771
pass	-4772
▁travel	-4773
ourcen	-4774
▁sprechen	-4775
ibr	-4776
stre	-4777
ostels	-4778
▁23	-4779
▁conflic	-4780
▁dank	-4781
iterran	-4782
ourn	-4783
▁territ	-4784
useum	-4785
▁Wort	-4786
▁fran	-4787
▁gewährleisten	-4788
▁Darüber	-4789
▁Projekte	-4790
▁Änderungsan	-4791
▁Tro	-4792
▁Affairs	-4793
▁Frühstück	-4794
bl	-4795
▁vorgesehen	-4796
jenigen	-4797
▁arbeiten	-4798
▁date	-4799
des	-4800
▁designed	-4801
8.	-4802
▁gegenwärt	-4803
▁Apart	-4804
ko	-4805
▁Beihilfen	-4806
▁exchange	-4807
▁enthält	-4808
▁Abkommen	-4809
▁extremely	-4810
▁music	-4811
▁happen	-4812
▁Cons	-4813
▁immedi	-4814
heim	-4815
▁school	-4816
▁Themen	-4817
▁democratic	-4818
▁emphas	-4819
▁divers	-4820
▁Mod	-4821
inner	-4822
▁solid	-4823
▁Unsere	-4824
▁America	-4825
ipment	-4826
▁wichtigen	-4827
▁Global	-4828
arity	-4829
▁rail	-4830
▁item	-4831
▁relax	-4832
▁Russland	-4833
▁reviews	-4834
ental	-4835
kei	-4836
play	-4837
feld	-4838
▁Eff	-4839
▁leaders	-4840
▁Nutzung	-4841
▁receive	-4842
▁industrial	-4843
ave	-4844
auber	-4845
▁Druck	-4846
▁Schwe	-4847
▁accommod	-4848
idel	-4849
▁subsid	-4850
▁Bil	-4851
▁Ausdruck	-4852
ini	-4853
▁*	-4854
uel	-4855
▁wide	-4856
ritts	-4857
▁hoffe	-4858
▁Maß	-4859
▁situated	-4860
ound	-4861
▁seen	-4862
▁draw	-4863
▁ermöglichen	-4864
▁restaurant	-4865
▁cut	-4866
▁que	-4867
▁empf	-4868
▁Wohn	-4869
▁proper	-4870
setzung	-4871
▁consequ	-4872
▁half	-4873
▁stor	-4874
▁betroffen	-4875
▁lat	-4876
▁web	-4877
▁Mot	-4878
spect	-4879
▁From	-4880
▁Turkey	-4881
ennung	-4882
▁unabhäng	-4883
▁humanit	-4884
▁Gruppe	-4885
▁normal	-4886
▁Richtung	-4887
▁später	-4888
▁ebenso	-4889
▁beein	-4890
isted	-4891
oking	-4892
fordert	-4893
▁includes	-4894
TM	-4895
▁Dan	-4896
ikanischen	-4897
▁minim	-4898
mm	-4899
▁neues	-4900
teid	-4901
NG	-4902
arbeitet	-4903
jähr	-4904
▁pool	-4905
▁guest	-4906
▁below	-4907
chter	-4908
▁received	-4909
▁cru	-4910
▁procedures	-4911
▁resol	-4912
▁century	-4913
setzen	-4914
▁features	-4915
▁beitragen	-4916
▁Verwendung	-4917
hilfe	-4918
schl	-4919
▁High	-4920
▁heut	-4921
▁operation	-4922
▁relevant	-4923
▁darum	-4924
▁UK	-4925
▁posit	-4926
▁media	-4927
▁Kunst	-4928
▁angeb	-4929
▁wohl	-4930
▁Erzeug	-4931
▁prim	-4932
--	-4933
▁living	-4934
▁rates	-4935
ufficient	-4936
▁wind	-4937
▁Sport	-4938
anten	-4939
▁Geschichte	-4940
hab	-4941
▁kleinen	-4942
▁helfen	-4943
kn	-4944
▁Tages	-4945
▁Landwirtschaft	-4946
▁competit	-4947
ba	-4948
ills	-4949
▁wobei	-4950
uted	-4951
▁entwickelt	-4952
stead	-4953
▁Akt	-4954
▁June	-4955
ED	-4956
lam	-4957
▁Damen	-4958
wide	-4959
▁ausgest	-4960
▁Kle	-4961
▁draft	-4962
▁profit	-4963
▁gleichzeitig	-4964
▁American	-4965
▁Kampf	-4966
▁Mil	-4967
▁eth	-4968
▁Höhe	-4969
▁Su	-4970
kommens	-4971
▁Konferenz	-4972
▁community	-4973
▁ce	-4974
more	-4975
ügen	-4976
schnitt	-4977
▁EG	-4978
▁Dokument	-4979
▁Süd	-4980
▁send	-4981
▁differen	-4982
▁Arbeitspl	-4983
▁links	-4984
iko	-4985
▁harmon	-4986
laden	-4987
▁Debian	-4988
▁Damit	-4989
ester	-4990
iete	-4991
nern	-4992
▁vorh	-4993
este	-4994
▁program	-4995
▁opportunities	-4996
kont	-4997
asons	-4998
ercial	-4999
astrop	-5000
▁Bestimmungen	-5001
pflich	-5002
▁Aufgabe	-5003
▁err	-5004
▁Erst	-5005
▁Folgen	-5006
▁Antwort	-5007
▁principles	-5008
▁Ho	-5009
uffer	-5010
▁type	-5011
lines	-5012
▁Türkei	-5013
AM	-5014
▁Ihrem	-5015
▁Vertra	-5016
▁Untersuch	-5017
ausch	-5018
▁Ukraine	-5019
temp	-5020
ingt	-5021
▁efficient	-5022
fluss	-5023
▁prakt	-5024
gelt	-5025
view	-5026
▁wirtschaftliche	-5027
▁Bre	-5028
rab	-5029
▁Vereinbar	-5030
Mail	-5031
▁Luxem	-5032
▁poor	-5033
just	-5034
▁schem	-5035
pekt	-5036
bor	-5037
▁Barcelona	-5038
▁organisations	-5039
▁scient	-5040
▁Republik	-5041
▁true	-5042
▁Mont	-5043
▁gefähr	-5044
▁response	-5045
▁took	-5046
▁space	-5047
urt	-5048
▁Prof	-5049
hoben	-5050
▁Nat	-5051
▁Bildung	-5052
▁verhin	-5053
attet	-5054
▁vielleicht	-5055
▁Empfehl	-5056
geschlossen	-5057
▁Enter	-5058
▁hätte	-5059
amous	-5060
▁Schiff	-5061
▁Gemeins	-5062
▁basic	-5063
sprozess	-5064
▁schwer	-5065
▁creation	-5066
▁consumer	-5067
▁schein	-5068
▁konnte	-5069
▁Dez	-5070
rang	-5071
len	-5072
▁origin	-5073
▁values	-5074
▁Tatsache	-5075
▁Sum	-5076
▁rat	-5077
▁Grie	-5078
amera	-5079
▁konkre	-5080
▁überw	-5081
▁soziale	-5082
▁guests	-5083
▁nahe	-5084
▁(+32	-5085
▁anzu	-5086
ios	-5087
▁einger	-5088
▁Medien	-5089
▁goods	-5090
▁friendly	-5091
▁doing	-5092
▁Since	-5093
ösen	-5094
oug	-5095
▁leading	-5096
▁verfüg	-5097
5,	-5098
▁behand	-5099
stances	-5100
▁mehrere	-5101
präsident	-5102
▁achieved	-5103
▁Familien	-5104
▁Kir	-5105
▁gran	-5106
▁agricultural	-5107
▁Volks	-5108
atell	-5109
orgung	-5110
▁Online	-5111
ros	-5112
▁plann	-5113
▁submitted	-5114
olicy	-5115
aring	-5116
orre	-5117
ielt	-5118
▁actually	-5119
pite	-5120
platz	-5121
▁providing	-5122
dienst	-5123
▁Auffassung	-5124
▁akzept	-5125
▁Öffentlichkeit	-5126
ipped	-5127
▁provisions	-5128
▁effects	-5129
schw	-5130
▁setzen	-5131
halte	-5132
▁langfrist	-5133
▁surround	-5134
▁face	-5135
▁oil	-5136
besch	-5137
cement	-5138
▁verpflich	-5139
erweise	-5140
▁em	-5141
▁recently	-5142
▁Convention	-5143
▁Verkehrs	-5144
lack	-5145
▁allows	-5146
▁Mitgliedstaat	-5147
▁everything	-5148
.000	-5149
▁Version	-5150
▁limited	-5151
▁contribution	-5152
▁Rel	-5153
▁Central	-5154
▁Position	-5155
▁works	-5156
vin	-5157
zeugen	-5158
▁Krise	-5159
igur	-5160
▁Denn	-5161
▁grund	-5162
▁attack	-5163
▁model	-5164
▁extens	-5165
▁bestimmte	-5166
▁ko	-5167
FR	-5168
seit	-5169
▁dep	-5170
▁rein	-5171
▁sent	-5172
▁hinsichtlich	-5173
▁record	-5174
äst	-5175
▁Kre	-5176
▁military	-5177
▁Net	-5178
▁öffentliche	-5179
▁idea	-5180
ano	-5181
onom	-5182
fu	-5183
▁gestellt	-5184
icles	-5185
▁PC	-5186
mehr	-5187
▁applications	-5188
zunehmen	-5189
President	-5190
▁Zentrum	-5191
▁Chin	-5192
▁neuer	-5193
▁performance	-5194
ungss	-5195
▁Musik	-5196
▁lik	-5197
▁bestimmten	-5198
unt	-5199
▁passen	-5200
▁Minuten	-5201
▁relig	-5202
rachten	-5203
▁hold	-5204
sehen	-5205
Be	-5206
▁jedem	-5207
▁Stär	-5208
▁traff	-5209
▁East	-5210
▁Juni	-5211
▁Africa	-5212
▁although	-5213
4,	-5214
▁aktiv	-5215
ausschuss	-5216
▁governments	-5217
ava	-5218
ktron	-5219
ißt	-5220
fringe	-5221
▁carried	-5222
▁gab	-5223
▁lux	-5224
annte	-5225
▁Vis	-5226
▁Zw	-5227
inden	-5228
cep	-5229
▁Zum	-5230
ias	-5231
▁King	-5232
▁vict	-5233
▁gehören	-5234
▁advant	-5235
dam	-5236
13	-5237
SA	-5238
EP	-5239
▁lässt	-5240
iddle	-5241
▁benefits	-5242
uded	-5243
▁Beteil	-5244
▁voted	-5245
osen	-5246
▁propert	-5247
▁Agre	-5248
▁external	-5249
buch	-5250
▁Rad	-5251
▁challenges	-5252
ategie	-5253
▁Jugend	-5254
uern	-5255
▁grundlegen	-5256
ießen	-5257
▁mount	-5258
▁satisf	-5259
▁einschließlich	-5260
sie	-5261
ussels	-5262
lemented	-5263
▁download	-5264
ka	-5265
fgh	-5266
jekt	-5267
ommer	-5268
▁Gesundheits	-5269
▁treatment	-5270
äum	-5271
▁gas	-5272
▁Lebensmittel	-5273
▁seek	-5274
▁danken	-5275
▁bleibt	-5276
ession	-5277
▁befinden	-5278
▁presented	-5279
▁cop	-5280
▁Notwend	-5281
▁December	-5282
▁Griechen	-5283
oo	-5284
▁-,	-5285
länd	-5286
▁sorgen	-5287
▁Einführung	-5288
fahrt	-5289
▁similar	-5290
▁hon	-5291
▁Tre	-5292
▁arg	-5293
▁Gründen	-5294
▁move	-5295
▁Platz	-5296
▁considered	-5297
bung	-5298
xis	-5299
▁verd	-5300
▁Staat	-5301
▁Booking	-5302
▁six	-5303
▁$	-5304
▁Bra	-5305
▁Ress	-5306
▁infrastructure	-5307
ekt	-5308
rechend	-5309
▁erwä	-5310
▁lot	-5311
▁Finanzierung	-5312
▁Please	-5313
ützen	-5314
▁team	-5315
▁parts	-5316
▁Abgeordneten	-5317
▁parliament	-5318
▁continu	-5319
▁August	-5320
üng	-5321
▁CD	-5322
▁setting	-5323
zer	-5324
haps	-5325
▁complex	-5326
▁criter	-5327
ounts	-5328
▁Verbindung	-5329
▁pict	-5330
▁Che	-5331
▁Greece	-5332
▁Solid	-5333
fghan	-5334
orten	-5335
▁traditional	-5336
▁Kop	-5337
▁card	-5338
▁veh	-5339
▁Fir	-5340
ßt	-5341
undes	-5342
▁IN	-5343
▁mittel	-5344
iciency	-5345
organisation	-5346
▁reasons	-5347
▁Mitteilung	-5348
▁Gelegenheit	-5349
ón	-5350
▁Kos	-5351
▁Rot	-5352
▁außerdem	-5353
▁unique	-5354
▁contains	-5355
icherung	-5356
inne	-5357
anzen	-5358
-2	-5359
ategories	-5360
▁professional	-5361
ane	-5362
8,	-5363
▁Brussels	-5364
▁choice	-5365
estens	-5366
▁sagte	-5367
DF	-5368
▁announ	-5369
▁regarding	-5370
ille	-5371
utter	-5372
ering	-5373
▁labour	-5374
ico	-5375
▁Sup	-5376
range	-5377
▁CO	-5378
möglichkeit	-5379
▁Webs	-5380
▁transl	-5381
krä	-5382
▁Dezember	-5383
rict	-5384
▁Kommissions	-5385
▁files	-5386
▁Arch	-5387
▁sectors	-5388
bewertungen	-5389
▁search	-5390
▁Privat	-5391
▁computer	-5392
ME	-5393
imension	-5394
▁reports	-5395
▁Est	-5396
iens	-5397
▁Dis	-5398
▁verantwort	-5399
▁Du	-5400
works	-5401
etzungen	-5402
▁Fuß	-5403
ournal	-5404
rehens	-5405
chnik	-5406
▁stage	-5407
ayer	-5408
europa	-5409
▁undert	-5410
▁jedes	-5411
ühungen	-5412
▁prepar	-5413
otos	-5414
bie	-5415
▁Volk	-5416
▁huge	-5417
ipl	-5418
▁enh	-5419
▁Aud	-5420
▁Unternehmens	-5421
6,	-5422
▁innovative	-5423
80	-5424
zent	-5425
▁game	-5426
▁Oper	-5427
▁thing	-5428
▁remains	-5429
▁waste	-5430
▁bi	-5431
▁movement	-5432
▁Kern	-5433
▁carry	-5434
▁hours	-5435
reibung	-5436
schreit	-5437
▁hinter	-5438
▁Zeitpunkt	-5439
ilateral	-5440
ball	-5441
▁Today	-5442
▁Mic	-5443
▁leben	-5444
stitute	-5445
▁Regierungen	-5446
▁equipment	-5447
zub	-5448
▁added	-5449
▁English	-5450
▁avoid	-5451
▁Kommunik	-5452
alter	-5453
icklung	-5454
▁60	-5455
▁Slo	-5456
ush	-5457
apt	-5458
▁Human	-5459
▁becom	-5460
▁culture	-5461
alu	-5462
put	-5463
▁Some	-5464
▁schrift	-5465
▁Regulation	-5466
▁attra	-5467
▁Policy	-5468
CH	-5469
▁Anfang	-5470
esh	-5471
▁IT	-5472
ox	-5473
▁Bro	-5474
▁kleine	-5475
▁("	-5476
▁Leg	-5477
▁connection	-5478
▁transfer	-5479
griffen	-5480
heben	-5481
ological	-5482
▁sound	-5483
▁vö	-5484
▁aware	-5485
▁Änderungsantrag	-5486
struktur	-5487
▁tragen	-5488
▁jede	-5489
▁purch	-5490
zone	-5491
▁Let	-5492
▁City	-5493
▁famous	-5494
cer	-5495
umb	-5496
▁Lauf	-5497
leitet	-5498
enew	-5499
▁mobile	-5500
▁Auswahl	-5501
▁französ	-5502
▁kulture	-5503
IL	-5504
geber	-5505
▁500	-5506
▁Agr	-5507
▁Monaten	-5508
▁zentral	-5509
iable	-5510
inger	-5511
▁Kommissarin	-5512
▁looking	-5513
▁Ed	-5514
legung	-5515
▁Ausschusses	-5516
▁image	-5517
iterranean	-5518
▁restrict	-5519
▁größten	-5520
▁welcom	-5521
Ar	-5522
▁dring	-5523
▁Notwendigkeit	-5524
▁häuf	-5525
ierter	-5526
▁neben	-5527
▁Män	-5528
itel	-5529
▁steps	-5530
▁Finally	-5531
gef	-5532
▁mentioned	-5533
erve	-5534
▁businesses	-5535
ategorien	-5536
▁Hung	-5537
▁Kolleginnen	-5538
▁age	-5539
▁Änderungen	-5540
▁Post	-5541
▁Überein	-5542
▁answer	-5543
▁neigh	-5544
▁Königreich	-5545
▁Pa	-5546
schließend	-5547
itness	-5548
▁beschlossen	-5549
▁original	-5550
imme	-5551
▁front	-5552
▁Sy	-5553
▁ca	-5554
▁Arbeitnehmer	-5555
uck	-5556
▁Pan	-5557
▁heißt	-5558
ara	-5559
▁spielen	-5560
▁Vorauss	-5561
▁Transpar	-5562
agn	-5563
ierenden	-5564
▁verfügen	-5565
ought	-5566
▁Dritt	-5567
▁Brüssel	-5568
ieg	-5569
▁Sim	-5570
▁Bereiche	-5571
▁self	-5572
▁medium	-5573
▁latest	-5574
ovo	-5575
▁body	-5576
▁gemäß	-5577
▁anderer	-5578
trächt	-5579
▁March	-5580
▁shows	-5581
verage	-5582
▁zeigen	-5583
▁Oct	-5584
▁Balk	-5585
▁Städ	-5586
▁enlargement	-5587
fon	-5588
▁substant	-5589
▁Konfl	-5590
iglich	-5591
▁Macht	-5592
▁verab	-5593
kraft	-5594
▁certainly	-5595
rid	-5596
stellungen	-5597
▁Forschungs	-5598
isheries	-5599
▁deta	-5600
▁Up	-5601
▁red	-5602
esellschaften	-5603
▁credit	-5604
▁tät	-5605
kennen	-5606
Europ	-5607
industrie	-5608
uclear	-5609
▁details	-5610
lace	-5611
7.	-5612
▁innovation	-5613
▁jüng	-5614
öst	-5615
▁measure	-5616
▁Innovation	-5617
istische	-5618
▁series	-5619
▁Personal	-5620
▁expl	-5621
▁Anzahl	-5622
▁commercial	-5623
hesion	-5624
▁expected	-5625
▁Jo	-5626
▁Instrument	-5627
licken	-5628
▁IS	-5629
▁frei	-5630
▁balance	-5631
face	-5632
▁Wahr	-5633
▁Mac	-5634
▁successful	-5635
roat	-5636
▁Währ	-5637
▁erklärte	-5638
▁comprom	-5639
▁Ober	-5640
▁Gewalt	-5641
streng	-5642
▁spezie	-5643
▁Unterk	-5644
una	-5645
En	-5646
reland	-5647
▁weiß	-5648
ziehung	-5649
▁tw	-5650
lad	-5651
greifen	-5652
▁quickly	-5653
▁Standard	-5654
▁spac	-5655
▁miss	-5656
▁Dabei	-5657
▁former	-5658
▁Inde	-5659
▁rule	-5660
▁liberal	-5661
▁aspects	-5662
▁erlaub	-5663
mbH	-5664
emit	-5665
▁erinn	-5666
▁partnership	-5667
anner	-5668
gn	-5669
▁stock	-5670
▁ten	-5671
▁Während	-5672
abor	-5673
▁spr	-5674
ws	-5675
▁priorities	-5676
ends	-5677
iture	-5678
▁geführt	-5679
afen	-5680
▁vergangenen	-5681
ole	-5682
▁meinen	-5683
▁trotz	-5684
.)	-5685
▁oblig	-5686
▁verwenden	-5687
▁Sant	-5688
▁Col	-5689
▁speed	-5690
izient	-5691
Fra	-5692
▁dynam	-5693
12	-5694
ero	-5695
▁gleichen	-5696
▁block	-5697
▁obtain	-5698
▁Ra	-5699
rad	-5700
ifik	-5701
▁eindeut	-5702
▁Kapital	-5703
▁denke	-5704
▁York	-5705
▁Verpflichtungen	-5706
▁eigent	-5707
▁reached	-5708
statt	-5709
▁nothing	-5710
urance	-5711
▁niedr	-5712
igungen	-5713
forderung	-5714
ungsverfahren	-5715
▁contribute	-5716
▁Mai	-5717
pose	-5718
▁coll	-5719
will	-5720
▁ihres	-5721
overty	-5722
▁Krieg	-5723
▁distribution	-5724
/2	-5725
fortun	-5726
▁Zivil	-5727
▁gesamte	-5728
▁Mor	-5729
zeuge	-5730
▁whose	-5731
▁instruments	-5732
▁Vorsitz	-5733
opping	-5734
▁Transport	-5735
▁Western	-5736
▁asked	-5737
▁une	-5738
▁stability	-5739
▁built	-5740
▁ord	-5741
▁double	-5742
▁warm	-5743
▁chem	-5744
▁wa	-5745
otes	-5746
▁vorhanden	-5747
▁dang	-5748
▁stop	-5749
▁try	-5750
sc	-5751
▁Afghan	-5752
▁Agreement	-5753
▁Veranst	-5754
▁south	-5755
▁brought	-5756
usions	-5757
wortern	-5758
fahrens	-5759
▁GmbH	-5760
▁Reise	-5761
▁Zweit	-5762
izienz	-5763
▁Hol	-5764
ernen	-5765
▁popular	-5766
▁Okt	-5767
▁Aufent	-5768
anischen	-5769
▁Bemühungen	-5770
▁conference	-5771
osp	-5772
▁herr	-5773
▁fehl	-5774
son	-5775
▁Ireland	-5776
▁Regeln	-5777
▁zunehmen	-5778
▁genehm	-5779
örper	-5780
▁leisten	-5781
▁zweiten	-5782
tes	-5783
▁proceed	-5784
▁Italian	-5785
Sch	-5786
▁Economic	-5787
▁lediglich	-5788
ungsver	-5789
▁coming	-5790
▁party	-5791
▁konzentr	-5792
▁Now	-5793
▁colleag	-5794
oz	-5795
▁entwickeln	-5796
▁matters	-5797
▁correct	-5798
▁absolute	-5799
emb	-5800
▁Koh	-5801
fun	-5802
atic	-5803
▁sieht	-5804
▁bel	-5805
▁depend	-5806
▁Business	-5807
▁simple	-5808
führen	-5809
idelines	-5810
▁writing	-5811
▁Gebä	-5812
▁prü	-5813
▁note	-5814
VD	-5815
▁Schwer	-5816
ordination	-5817
▁Club	-5818
▁code	-5819
▁limit	-5820
▁Werk	-5821
utt	-5822
▁completely	-5823
bezogen	-5824
▁criteria	-5825
▁Tel	-5826
MU	-5827
▁Entscheidungen	-5828
artige	-5829
▁großer	-5830
▁ähn	-5831
▁hohen	-5832
▁Austria	-5833
▁Preise	-5834
▁purs	-5835
▁Nachbar	-5836
▁fix	-5837
▁Fed	-5838
▁Pers	-5839
▁study	-5840
▁Install	-5841
▁Initi	-5842
strumente	-5843
▁Ter	-5844
▁Infrastruktur	-5845
▁länd	-5846
▁Mehrheit	-5847
▁Gesamt	-5848
istics	-5849
Un	-5850
▁stress	-5851
öhn	-5852
haupt	-5853
▁erster	-5854
▁implemented	-5855
eg	-5856
▁März	-5857
tag	-5858
▁legislative	-5859
▁sense	-5860
▁Ansatz	-5861
▁condu	-5862
mus	-5863
▁Spanish	-5864
▁published	-5865
▁October	-5866
▁shown	-5867
▁bestät	-5868
▁Industr	-5869
spiel	-5870
▁Unser	-5871
arily	-5872
mann	-5873
▁somit	-5874
▁Rights	-5875
okoll	-5876
7,	-5877
▁Stellungnahme	-5878
▁affect	-5879
▁Strand	-5880
▁ill	-5881
▁Gruppen	-5882
▁durchgeführt	-5883
bourg	-5884
bus	-5885
▁Phil	-5886
▁europäischer	-5887
▁Loc	-5888
▁Wochen	-5889
▁Services	-5890
page	-5891
▁Public	-5892
stellt	-5893
▁beginning	-5894
▁renew	-5895
ürger	-5896
▁effort	-5897
teller	-5898
aktion	-5899
▁Augen	-5900
orf	-5901
▁overall	-5902
angt	-5903
▁emissions	-5904
▁highly	-5905
▁vill	-5906
ivity	-5907
▁highl	-5908
▁sites	-5909
▁independent	-5910
▁Pass	-5911
▁candid	-5912
▁ruh	-5913
▁div	-5914
kosten	-5915
öffnet	-5916
▁lic	-5917
▁Therefore	-5918
▁zweite	-5919
▁committee	-5920
▁recover	-5921
▁=	-5922
▁Anstreng	-5923
▁supported	-5924
enzüber	-5925
▁activity	-5926
▁jähr	-5927
▁nice	-5928
▁Management	-5929
▁wün	-5930
IA	-5931
▁los	-5932
▁Arg	-5933
▁tatsächlich	-5934
▁influen	-5935
ees	-5936
▁Erklärung	-5937
▁largest	-5938
▁indeed	-5939
▁comprehens	-5940
iated	-5941
gratul	-5942
▁suffer	-5943
here	-5944
▁Transparenz	-5945
mäßig	-5946
▁ernst	-5947
▁possibility	-5948
IF	-5949
▁fall	-5950
sto	-5951
ängt	-5952
▁Gal	-5953
yond	-5954
zeichnung	-5955
▁assessment	-5956
lier	-5957
▁ground	-5958
estic	-5959
▁Second	-5960
owers	-5961
▁allein	-5962
ützt	-5963
▁Background	-5964
▁infringe	-5965
ollar	-5966
▁center	-5967
▁Zeitraum	-5968
▁Eigen	-5969
▁Les	-5970
▁reforms	-5971
ery	-5972
15	-5973
die	-5974
▁dise	-5975
▁4.	-5976
ätzen	-5977
▁regards	-5978
▁Fällen	-5979
▁zehn	-5980
based	-5981
▁ganzen	-5982
▁British	-5983
fiz	-5984
itial	-5985
70	-5986
möglichkeiten	-5987
▁gebracht	-5988
ilen	-5989
▁fig	-5990
▁300	-5991
▁Gemein	-5992
reiber	-5993
inde	-5994
zwe	-5995
▁zunächst	-5996
▁Griechenland	-5997
▁Flü	-5998
▁mut	-5999
▁size	-6000
▁fishing	-6001
inisters	-6002
▁regular	-6003
wise	-6004
▁sex	-6005
.,	-6006
▁Wissenschaft	-6007
▁January	-6008
▁Armut	-6009
▁initiatives	-6010
handel	-6011
▁sufficient	-6012
▁poverty	-6013
▁zug	-6014
▁threat	-6015
▁experien	-6016
▁Juli	-6017
▁vertreten	-6018
▁verg	-6019
▁diskut	-6020
apital	-6021
▁Stad	-6022
oppel	-6023
▁Ze	-6024
▁Woche	-6025
legenheiten	-6026
where	-6027
▁lower	-6028
▁Ents	-6029
ilden	-6030
▁lauf	-6031
▁reduction	-6032
▁purpose	-6033
▁gives	-6034
▁monitoring	-6035
▁Oktober	-6036
▁requires	-6037
Te	-6038
▁death	-6039
ächt	-6040
▁schle	-6041
▁Gas	-6042
▁Get	-6043
▁Terrorismus	-6044
▁Beitritts	-6045
tent	-6046
▁Partnerschaft	-6047
▁Herzen	-6048
▁Di	-6049
▁accession	-6050
▁Nationen	-6051
wesen	-6052
▁Freiheit	-6053
▁behind	-6054
▁forms	-6055
cks	-6056
▁(200	-6057
▁condition	-6058
flä	-6059
▁evalu	-6060
▁came	-6061
ibilities	-6062
▁Opt	-6063
▁wissenschaft	-6064
▁Iraq	-6065
▁geschlossen	-6066
▁unseres	-6067
▁Lösungen	-6068
▁Ressourcen	-6069
ected	-6070
▁accord	-6071
▁Fach	-6072
▁geschaffen	-6073
ature	-6074
iles	-6075
▁vorliegen	-6076
▁Mitarbeiter	-6077
▁efficiency	-6078
zeugt	-6079
▁engine	-6080
▁creating	-6081
▁Beruf	-6082
▁green	-6083
zusch	-6084
▁erhält	-6085
▁folgenden	-6086
▁host	-6087
▁July	-6088
▁integrated	-6089
▁transparency	-6090
▁san	-6091
▁Straßen	-6092
▁2020	-6093
▁ways	-6094
▁Kl	-6095
▁Regul	-6096
▁choose	-6097
▁Gene	-6098
▁agenda	-6099
▁äußerst	-6100
▁wichtiger	-6101
scht	-6102
uffet	-6103
▁zahlreiche	-6104
▁Aktivitäten	-6105
▁gelegen	-6106
▁illegal	-6107
ader	-6108
▁stra	-6109
▁Vertreter	-6110
▁Palest	-6111
ande	-6112
▁Gefahr	-6113
):	-6114
▁völlig	-6115
▁super	-6116
▁Security	-6117
AD	-6118
teuer	-6119
▁learn	-6120
▁Thank	-6121
▁contr	-6122
▁crucial	-6123
▁sus	-6124
▁border	-6125
▁prepared	-6126
▁brit	-6127
OL	-6128
▁à	-6129
sprün	-6130
ored	-6131
meer	-6132
fordern	-6133
▁applied	-6134
▁banks	-6135
▁bekommen	-6136
25	-6137
▁technologies	-6138
▁Cy	-6139
▁cause	-6140
▁select	-6141
▁erweit	-6142
▁holiday	-6143
itter	-6144
▁Komprom	-6145
▁dadurch	-6146
▁Wohl	-6147
schlag	-6148
▁congratul	-6149
▁Sicht	-6150
ape	-6151
▁früh	-6152
▁financing	-6153
▁Are	-6154
▁alternative	-6155
▁approved	-6156
▁seems	-6157
▁terrorism	-6158
rahmen	-6159
▁Gipf	-6160
▁partner	-6161
ugs	-6162
▁facilit	-6163
▁Ke	-6164
▁erk	-6165
terne	-6166
▁airport	-6167
▁analysis	-6168
lös	-6169
ology	-6170
▁Grenzen	-6171
▁Ever	-6172
▁Alt	-6173
▁Schritte	-6174
ps	-6175
▁accommodation	-6176
▁richtig	-6177
9,	-6178
▁profession	-6179
▁Don	-6180
▁nuclear	-6181
front	-6182
▁Mag	-6183
altet	-6184
▁competitive	-6185
▁Star	-6186
ichtlich	-6187
▁bessere	-6188
▁registr	-6189
▁everyone	-6190
▁Tier	-6191
▁register	-6192
-200	-6193
▁Bud	-6194
▁Organisationen	-6195
▁genannten	-6196
▁erfolgreich	-6197
ühl	-6198
▁Österreich	-6199
adem	-6200
▁mal	-6201
▁exc	-6202
▁Durchführung	-6203
▁dut	-6204
▁entsprechenden	-6205
lain	-6206
▁office	-6207
wohn	-6208
▁ganze	-6209
▁substantial	-6210
▁relationship	-6211
▁sechs	-6212
▁tools	-6213
ibil	-6214
▁Produktion	-6215
ously	-6216
▁equal	-6217
▁eigene	-6218
▁pan	-6219
ronic	-6220
▁plans	-6221
▁Ham	-6222
▁unmittel	-6223
▁Präsidenten	-6224
SP	-6225
legten	-6226
▁Solidar	-6227
▁guten	-6228
▁Democ	-6229
ugg	-6230
▁Anstrengungen	-6231
▁ww	-6232
.00	-6233
▁ändern	-6234
▁relation	-6235
▁discussion	-6236
és	-6237
▁minor	-6238
▁Entschließung	-6239
cker	-6240
▁Mode	-6241
▁stärker	-6242
▁www	-6243
polit	-6244
prises	-6245
ängen	-6246
▁amer	-6247
▁Insel	-6248
▁discover	-6249
▁appe	-6250
verkehrs	-6251
itect	-6252
▁anti	-6253
▁news	-6254
ID	-6255
craft	-6256
▁Poland	-6257
▁Verwaltung	-6258
abkommen	-6259
ki	-6260
▁Ferien	-6261
▁phys	-6262
▁Bundes	-6263
▁Enterprise	-6264
▁solchen	-6265
▁Investitions	-6266
▁observ	-6267
falt	-6268
▁garant	-6269
▁Beschluss	-6270
")	-6271
▁Zentral	-6272
ley	-6273
mär	-6274
199	-6275
▁video	-6276
▁verstehen	-6277
▁Tage	-6278
cle	-6279
▁vorge	-6280
▁instrument	-6281
bert	-6282
freund	-6283
▁anim	-6284
verletz	-6285
▁Auftrag	-6286
aint	-6287
▁meinem	-6288
▁Cal	-6289
'.	-6290
▁administrative	-6291
orial	-6292
▁muß	-6293
IM	-6294
▁Centre	-6295
▁Har	-6296
▁Fehler	-6297
letzt	-6298
▁Imm	-6299
aign	-6300
ämt	-6301
PL	-6302
▁consist	-6303
▁vern	-6304
▁Eing	-6305
▁Waren	-6306
▁click	-6307
itable	-6308
▁Angebot	-6309
▁Sprache	-6310
Mitglied	-6311
ündet	-6312
▁wirks	-6313
▁respond	-6314
▁2,	-6315
uert	-6316
▁property	-6317
ustausch	-6318
▁Überwach	-6319
EW	-6320
▁hinzu	-6321
▁wonder	-6322
▁elektron	-6323
▁ris	-6324
▁pleas	-6325
leistung	-6326
▁häufig	-6327
▁übr	-6328
programm	-6329
▁Vice	-6330
▁Linux	-6331
porate	-6332
▁acquis	-6333
wendungen	-6334
▁Neben	-6335
▁annual	-6336
vis	-6337
reiten	-6338
akter	-6339
▁Bitte	-6340
gment	-6341
▁Kredit	-6342
zech	-6343
iegen	-6344
▁Agrar	-6345
▁unterst	-6346
▁option	-6347
▁eingesetzt	-6348
ares	-6349
entlich	-6350
▁Januar	-6351
ierende	-6352
▁Georg	-6353
▁dre	-6354
▁conflict	-6355
▁Regelung	-6356
▁Mediterranean	-6357
▁rapid	-6358
▁leicht	-6359
itzen	-6360
▁Site	-6361
▁überprü	-6362
▁describ	-6363
▁pressure	-6364
▁entde	-6365
▁verpflichtet	-6366
▁Of	-6367
▁Sil	-6368
▁Erd	-6369
▁Although	-6370
▁196	-6371
▁Computer	-6372
chsel	-6373
▁pen	-6374
▁Sm	-6375
endes	-6376
▁wunder	-6377
▁gestimmt	-6378
▁Furthermore	-6379
▁sun	-6380
▁schön	-6381
▁except	-6382
hörde	-6383
▁aufgenommen	-6384
▁Flughafen	-6385
45	-6386
dete	-6387
vors	-6388
▁privaten	-6389
▁mitt	-6390
▁Anforderungen	-6391
▁loss	-6392
▁aims	-6393
quare	-6394
▁easily	-6395
▁comprehensive	-6396
fortunately	-6397
▁competitiveness	-6398
▁EA	-6399
rupt	-6400
▁Free	-6401
▁target	-6402
▁Koordin	-6403
ograf	-6404
▁angesichts	-6405
▁Mult	-6406
11	-6407
▁allowed	-6408
folge	-6409
stein	-6410
▁ständ	-6411
▁improving	-6412
▁Verwaltungs	-6413
▁deep	-6414
▁Standpunkt	-6415
enntnis	-6416
▁28	-6417
▁exec	-6418
zuführen	-6419
▁Bürgern	-6420
wa	-6421
▁Folge	-6422
▁kannst	-6423
▁equipped	-6424
spricht	-6425
▁Exper	-6426
volle	-6427
▁Amend	-6428
▁thanks	-6429
▁hohe	-6430
▁status	-6431
fält	-6432
▁Aller	-6433
mbol	-6434
▁Kosovo	-6435
▁direction	-6436
▁obwohl	-6437
▁west	-6438
legation	-6439
▁effizient	-6440
▁beyond	-6441
atal	-6442
▁Log	-6443
▁Kan	-6444
▁konnten	-6445
▁grenzüber	-6446
head	-6447
▁Urlaub	-6448
9.	-6449
▁Bef	-6450
ola	-6451
▁treffen	-6452
▁message	-6453
▁modified	-6454
Die	-6455
▁einheit	-6456
▁concept	-6457
▁gewor	-6458
▁einzig	-6459
▁damage	-6460
ruf	-6461
gruppe	-6462
iends	-6463
iarden	-6464
ahren	-6465
▁regel	-6466
▁reference	-6467
▁erneut	-6468
▁prob	-6469
▁hotels	-6470
esearch	-6471
▁Schwier	-6472
▁atmosph	-6473
▁Here	-6474
▁Benutzer	-6475
▁minimum	-6476
▁80	-6477
▁weder	-6478
▁Ru	-6479
rosoft	-6480
▁Ratspräsident	-6481
▁Tat	-6482
▁Stelle	-6483
▁conven	-6484
▁Last	-6485
verständlich	-6486
▁Nur	-6487
▁closed	-6488
▁angemessen	-6489
▁unemp	-6490
▁construction	-6491
lare	-6492
ocol	-6493
▁else	-6494
▁north	-6495
▁Open	-6496
lla	-6497
▁restaurants	-6498
▁Anteil	-6499
▁affected	-6500
▁counter	-6501
▁fal	-6502
iveau	-6503
▁ensuring	-6504
ney	-6505
▁rural	-6506
resp	-6507
hagen	-6508
▁Dom	-6509
▁fell	-6510
▁poll	-6511
▁weak	-6512
▁sport	-6513
▁paid	-6514
▁einzige	-6515
▁scientific	-6516
▁anderem	-6517
▁transparent	-6518
▁initial	-6519
achtung	-6520
ammlung	-6521
▁schö	-6522
▁While	-6523
▁instead	-6524
▁Einrichtung	-6525
imming	-6526
▁Annahme	-6527
▁Party	-6528
▁Czech	-6529
▁reflect	-6530
▁perhaps	-6531
▁Dav	-6532
▁hol	-6533
▁garden	-6534
äne	-6535
▁ut	-6536
mö	-6537
gruppen	-6538
▁amendment	-6539
▁representatives	-6540
▁virt	-6541
▁source	-6542
▁Aufgaben	-6543
▁ausreich	-6544
▁erwarten	-6545
itting	-6546
▁renov	-6547
▁Parteien	-6548
▁Veränder	-6549
uche	-6550
▁types	-6551
▁export	-6552
▁Ele	-6553
▁bein	-6554
▁kam	-6555
ühm	-6556
▁Cost	-6557
richten	-6558
rec	-6559
▁leave	-6560
wenden	-6561
IV	-6562
▁tell	-6563
▁strategic	-6564
3)	-6565
▁verhindern	-6566
nungs	-6567
▁1990	-6568
ränkt	-6569
▁repe	-6570
▁committed	-6571
▁calls	-6572
resse	-6573
▁foot	-6574
▁documents	-6575
sprü	-6576
▁train	-6577
oder	-6578
ettbewerbs	-6579
▁compromise	-6580
▁solidarity	-6581
▁elections	-6582
▁Environment	-6583
▁task	-6584
▁Room	-6585
▁wid	-6586
▁elements	-6587
umän	-6588
▁compon	-6589
üg	-6590
▁(2	-6591
▁Systems	-6592
Vert	-6593
comm	-6594
▁upd	-6595
▁Constitution	-6596
vere	-6597
▁Agenda	-6598
....	-6599
▁average	-6600
losen	-6601
▁spir	-6602
▁Diskussion	-6603
otion	-6604
▁Jed	-6605
▁regulations	-6606
ades	-6607
wind	-6608
▁Berichts	-6609
alyse	-6610
▁gain	-6611
▁sofort	-6612
▁persons	-6613
ürf	-6614
sy	-6615
▁concentr	-6616
wirken	-6617
ja	-6618
37	-6619
HO	-6620
zulegen	-6621
▁furn	-6622
▁She	-6623
▁customer	-6624
▁5.	-6625
▁alloc	-6626
▁vorgelegt	-6627
sätze	-6628
▁Lang	-6629
öm	-6630
▁Banken	-6631
▁Reformen	-6632
▁attract	-6633
▁borders	-6634
etherlands	-6635
▁berücksichtigt	-6636
rief	-6637
▁base	-6638
▁operating	-6639
grenz	-6640
▁Well	-6641
▁atmosphere	-6642
bre	-6643
liz	-6644
▁hy	-6645
▁Fäh	-6646
▁helpful	-6647
9-	-6648
▁cities	-6649
5-0	-6650
▁Mart	-6651
hood	-6652
▁neighbour	-6653
Fraktion	-6654
ories	-6655
band	-6656
▁distr	-6657
▁Afghanistan	-6658
▁structure	-6659
▁wenige	-6660
▁legit	-6661
▁violence	-6662
rats	-6663
cription	-6664
▁won	-6665
▁became	-6666
▁außerhalb	-6667
▁GDP	-6668
▁structural	-6669
UR	-6670
▁genommen	-6671
▁nationale	-6672
▁humanitarian	-6673
inens	-6674
▁erzielt	-6675
▁dein	-6676
▁ursprün	-6677
▁During	-6678
▁Abschluss	-6679
konom	-6680
▁display	-6681
▁prot	-6682
▁heutigen	-6683
▁Allerdings	-6684
▁arrange	-6685
);	-6686
emin	-6687
▁scheint	-6688
▁started	-6689
▁Vergleich	-6690
iction	-6691
▁Wider	-6692
▁Präsidentschaft	-6693
▁electric	-6694
▁Microsoft	-6695
nungen	-6696
▁Ost	-6697
etimes	-6698
▁Basis	-6699
leistungs	-6700
▁Moreover	-6701
▁campaign	-6702
▁Änderung	-6703
▁Pap	-6704
▁pleased	-6705
gy	-6706
igran	-6707
▁Sign	-6708
▁thous	-6709
▁networks	-6710
▁festgelegt	-6711
ST	-6712
▁Hostels	-6713
▁quiet	-6714
▁Cop	-6715
stoffe	-6716
▁meaning	-6717
folger	-6718
▁produced	-6719
▁TH	-6720
▁practical	-6721
▁italien	-6722
ssen	-6723
äte	-6724
▁Punkte	-6725
merksamkeit	-6726
üs	-6727
gehend	-6728
▁beschäft	-6729
izepräsident	-6730
▁Pressemit	-6731
aving	-6732
zusetzen	-6733
▁Inn	-6734
▁Polen	-6735
▁Team	-6736
▁statement	-6737
▁pal	-6738
krise	-6739
htm	-6740
iance	-6741
urb	-6742
dra	-6743
hers	-6744
▁keiner	-6745
werte	-6746
▁schließlich	-6747
ollte	-6748
▁materials	-6749
▁benötigen	-6750
▁slow	-6751
▁secure	-6752
▁growing	-6753
▁relating	-6754
atab	-6755
▁Server	-6756
etary	-6757
▁board	-6758
▁simpl	-6759
▁zudem	-6760
▁Aufmerksamkeit	-6761
▁versuchen	-6762
▁Material	-6763
astic	-6764
▁places	-6765
lichkeiten	-6766
▁tim	-6767
▁umgesetzt	-6768
▁firm	-6769
Sp	-6770
▁Bad	-6771
▁getroffen	-6772
▁Metho	-6773
▁sonst	-6774
▁improved	-6775
▁erschein	-6776
race	-6777
▁Mand	-6778
▁Klimawand	-6779
▁challenge	-6780
▁Berg	-6781
orgt	-6782
schließen	-6783
▁x	-6784
enze	-6785
standen	-6786
▁circum	-6787
▁ziehen	-6788
▁cy	-6789
aschinen	-6790
▁Technologie	-6791
▁accordance	-6792
▁Eigent	-6793
▁provision	-6794
ded	-6795
▁giving	-6796
▁Its	-6797
▁Golf	-6798
▁floor	-6799
▁bem	-6800
▁options	-6801
▁Dinge	-6802
bas	-6803
▁erfüllen	-6804
ifel	-6805
▁Many	-6806
▁Dire	-6807
▁Aspekte	-6808
▁Research	-6809
{{	-6810
ION	-6811
▁produce	-6812
▁Netherlands	-6813
▁Zeich	-6814
PS	-6815
▁gele	-6816
▁entsprechend	-6817
▁style	-6818
▁Eas	-6819
splan	-6820
▁distance	-6821
▁emb	-6822
▁Erfahrungen	-6823
▁195	-6824
▁vollständig	-6825
▁eingehen	-6826
fence	-6827
▁encourage	-6828
ogle	-6829
ummer	-6830
▁Also	-6831
▁plant	-6832
▁forces	-6833
▁likely	-6834
▁investigation	-6835
unsch	-6836
▁hous	-6837
▁Kingdom	-6838
▁risks	-6839
▁ausgestattet	-6840
schech	-6841
▁bur	-6842
▁impress	-6843
aters	-6844
▁Umgebung	-6845
▁Rede	-6846
öße	-6847
pret	-6848
▁größte	-6849
erkennung	-6850
▁Under	-6851
▁größer	-6852
▁consequences	-6853
▁players	-6854
engen	-6855
omor	-6856
▁University	-6857
▁gerecht	-6858
▁Sinne	-6859
▁Liefer	-6860
drücklich	-6861
▁Werte	-6862
▁Verfassung	-6863
inary	-6864
▁glo	-6865
scheinlich	-6866
▁apartment	-6867
▁freund	-6868
▁variety	-6869
▁accep	-6870
▁Anges	-6871
▁spezif	-6872
achstums	-6873
▁ult	-6874
▁nimmt	-6875
gült	-6876
▁Slow	-6877
izin	-6878
▁Tex	-6879
▁Beginn	-6880
▁practices	-6881
▁Miss	-6882
▁Prüfung	-6883
▁geworden	-6884
▁Conference	-6885
▁Erachten	-6886
▁Minder	-6887
indungen	-6888
ifizierung	-6889
▁jeweiligen	-6890
uis	-6891
▁decide	-6892
▁bestimmt	-6893
▁accomp	-6894
▁Erachtens	-6895
▁bra	-6896
akte	-6897
▁prüfen	-6898
▁IC	-6899
▁Stärkung	-6900
klang	-6901
▁farmers	-6902
▁exerc	-6903
▁island	-6904
gewiesen	-6905
▁Verteid	-6906
▁offered	-6907
▁coast	-6908
wart	-6909
▁Prinzip	-6910
▁written	-6911
▁Jahrhundert	-6912
▁participation	-6913
ples	-6914
▁klein	-6915
fälle	-6916
▁allgemeinen	-6917
▁Spa	-6918
▁Praxis	-6919
house	-6920
▁advantage	-6921
kret	-6922
utr	-6923
▁summer	-6924
▁offiz	-6925
ästinens	-6926
▁opening	-6927
▁Ky	-6928
ato	-6929
▁aktuellen	-6930
ena	-6931
▁debt	-6932
▁bringt	-6933
▁According	-6934
▁Ist	-6935
/9	-6936
We	-6937
▁Film	-6938
▁veröffentlicht	-6939
▁crim	-6940
▁Java	-6941
achs	-6942
dere	-6943
▁Familie	-6944
lett	-6945
▁Strom	-6946
LA	-6947
▁regionalen	-6948
2-	-6949
zehn	-6950
▁lives	-6951
▁Erk	-6952
▁Stellen	-6953
▁erklärt	-6954
enhagen	-6955
▁erwartet	-6956
▁Arbeitsplätze	-6957
▁Dazu	-6958
▁Kriterien	-6959
itzer	-6960
▁feed	-6961
▁90	-6962
▁Behandlung	-6963
▁operations	-6964
▁Hel	-6965
punkte	-6966
▁Office	-6967
▁verbessert	-6968
elten	-6969
ört	-6970
▁tä	-6971
▁meines	-6972
▁hätten	-6973
▁bestehenden	-6974
▁path	-6975
▁cohesion	-6976
▁0.	-6977
▁mis	-6978
▁alten	-6979
▁verring	-6980
▁26	-6981
▁Prioritäten	-6982
lose	-6983
gebiet	-6984
▁worth	-6985
zt	-6986
▁architect	-6987
▁seines	-6988
▁Communic	-6989
▁schriftlich	-6990
langen	-6991
▁Stunden	-6992
tert	-6993
▁ehem	-6994
ech	-6995
▁Neu	-6996
▁Ere	-6997
utive	-6998
▁Prozent	-6999
▁Real	-7000
▁commitments	-7001
▁ful	-7002
iell	-7003
▁drive	-7004
▁günst	-7005
▁Altern	-7006
Off	-7007
▁Verl	-7008
atform	-7009
▁Initiativen	-7010
▁Heute	-7011
▁enfor	-7012
▁sämt	-7013
▁mainly	-7014
anging	-7015
▁mem	-7016
ita	-7017
läuf	-7018
▁reduced	-7019
▁languages	-7020
▁reality	-7021
▁Vereinbarung	-7022
▁Rev	-7023
▁krit	-7024
gemeine	-7025
di	-7026
▁Green	-7027
▁Linie	-7028
upts	-7029
▁Erfahrung	-7030
▁Ged	-7031
▁formal	-7032
▁Beihilfe	-7033
stag	-7034
▁Rats	-7035
idge	-7036
▁genießen	-7037
▁00	-7038
▁Opfer	-7039
zielle	-7040
▁scope	-7041
▁Ausgaben	-7042
14	-7043
▁verm	-7044
▁deutschen	-7045
anc	-7046
▁BIP	-7047
▁guidelines	-7048
▁schützen	-7049
entur	-7050
▁gerne	-7051
▁adoption	-7052
▁eher	-7053
tellten	-7054
39	-7055
▁remov	-7056
▁Konzept	-7057
▁genehmigt	-7058
▁Ta	-7059
▁Abend	-7060
▁urg	-7061
▁Bewertung	-7062
greif	-7063
▁Museum	-7064
▁50%	-7065
▁extent	-7066
▁scheme	-7067
▁zeit	-7068
ühen	-7069
PE	-7070
▁uner	-7071
▁gee	-7072
▁Liberal	-7073
▁useful	-7074
▁enterprises	-7075
üst	-7076
▁har	-7077
▁Betrieb	-7078
rete	-7079
▁urban	-7080
▁negative	-7081
iate	-7082
▁Down	-7083
▁teach	-7084
ischem	-7085
barer	-7086
▁unbed	-7087
▁mensch	-7088
▁offering	-7089
▁Je	-7090
itation	-7091
▁Tätigkeit	-7092
law	-7093
▁John	-7094
quate	-7095
▁End	-7096
standing	-7097
▁Det	-7098
▁Vorteile	-7099
▁consultation	-7100
▁eleg	-7101
▁erleich	-7102
▁diejenigen	-7103
▁Vertrauen	-7104
ais	-7105
▁friends	-7106
▁aimed	-7107
uls	-7108
▁Schwierigkeiten	-7109
▁stabil	-7110
▁Einrichtungen	-7111
▁zusätzliche	-7112
liance	-7113
▁Wein	-7114
sicherheit	-7115
regel	-7116
▁rise	-7117
▁Barroso	-7118
QL	-7119
▁Prem	-7120
onia	-7121
▁Milliarden	-7122
▁tack	-7123
▁recon	-7124
▁frequ	-7125
}}	-7126
▁historical	-7127
▁comply	-7128
behörden	-7129
▁Airport	-7130
hold	-7131
▁maximum	-7132
▁Anpass	-7133
▁Palestin	-7134
▁Drit	-7135
▁Fonds	-7136
▁mindestens	-7137
trägen	-7138
rem	-7139
zul	-7140
ortion	-7141
II	-7142
▁Wann	-7143
▁phone	-7144
▁Bahn	-7145
▁Sen	-7146
▁award	-7147
▁Sektor	-7148
▁dringend	-7149
▁DVD	-7150
▁perman	-7151
▁coordin	-7152
▁intended	-7153
▁geeign	-7154
lav	-7155
▁unters	-7156
▁unbe	-7157
selves	-7158
tritt	-7159
wogen	-7160
Vertrag	-7161
▁Chinese	-7162
oker	-7163
▁Tab	-7164
▁payment	-7165
▁besondere	-7166
▁listed	-7167
▁!	-7168
▁gefunden	-7169
▁highest	-7170
▁Einklang	-7171
▁Einige	-7172
▁35	-7173
itude	-7174
ücken	-7175
▁Gott	-7176
▁Supp	-7177
▁Bereit	-7178
▁vorsch	-7179
▁Video	-7180
▁late	-7181
▁granted	-7182
▁hil	-7183
hafte	-7184
▁globalen	-7185
▁ign	-7186
▁regime	-7187
schul	-7188
▁Programms	-7189
▁Sache	-7190
▁beant	-7191
▁caused	-7192
categories	-7193
▁verurs	-7194
▁Ba	-7195
ündung	-7196
lymp	-7197
▁bezüglich	-7198
eks	-7199
iertel	-7200
▁Stock	-7201
▁Trade	-7202
▁infringement	-7203
▁Mer	-7204
▁befür	-7205
itts	-7206
▁Kompromiss	-7207
▁AN	-7208
▁Verhalten	-7209
OT	-7210
▁Irland	-7211
▁unterb	-7212
▁effectively	-7213
ervice	-7214
▁obvious	-7215
ifying	-7216
▁budgetary	-7217
RE	-7218
▁Islam	-7219
laufen	-7220
▁Ann	-7221
▁Homepage	-7222
▁Ereign	-7223
▁tätig	-7224
▁Justiz	-7225
▁Unterkategorien	-7226
▁Rec	-7227
▁Action	-7228
▁Fischerei	-7229
▁Mc	-7230
angeb	-7231
▁Bot	-7232
gas	-7233
▁folgt	-7234
▁Innen	-7235
▁Finn	-7236
▁occas	-7237
▁historic	-7238
gangs	-7239
prüfung	-7240
▁Id	-7241
▁establishment	-7242
ya	-7243
▁Mex	-7244
▁powers	-7245
▁Anerkennung	-7246
▁shopping	-7247
▁sicherzustellen	-7248
▁Hal	-7249
▁Hy	-7250
▁stell	-7251
▁entspricht	-7252
▁Bestand	-7253
.:	-7254
▁deine	-7255
omorrow	-7256
▁Niederlan	-7257
▁rele	-7258
border	-7259
▁Grand	-7260
back	-7261
hältnis	-7262
▁ban	-7263
▁Gebieten	-7264
udem	-7265
▁vorher	-7266
▁bad	-7267
▁Vorhaben	-7268
▁AC	-7269
▁Weiter	-7270
gesetz	-7271
▁promoting	-7272
▁mand	-7273
▁vital	-7274
▁folgende	-7275
▁developments	-7276
stieg	-7277
▁Health	-7278
▁implementing	-7279
odies	-7280
ämpfen	-7281
▁Investment	-7282
▁Kommunikation	-7283
▁finance	-7284
▁Em	-7285
chtet	-7286
▁Völk	-7287
ällt	-7288
cul	-7289
▁depart	-7290
▁Irak	-7291
▁Sekt	-7292
▁SME	-7293
▁getan	-7294
▁Amster	-7295
▁Umfang	-7296
▁behandelt	-7297
▁ideas	-7298
▁ehemal	-7299
Str	-7300
▁70	-7301
▁Modern	-7302
▁Vorbereit	-7303
▁setzt	-7304
▁Zudem	-7305
▁Mos	-7306
',	-7307
atoren	-7308
▁Google	-7309
▁traffic	-7310
▁reading	-7311
▁Gef	-7312
▁beide	-7313
▁domin	-7314
▁word	-7315
vorsitz	-7316
▁Untersuchung	-7317
▁daily	-7318
▁ded	-7319
annen	-7320
▁Ac	-7321
derungen	-7322
▁justice	-7323
board	-7324
▁bald	-7325
▁exact	-7326
▁Sitzung	-7327
angs	-7328
▁round	-7329
ystemen	-7330
uses	-7331
ifically	-7332
▁section	-7333
▁rich	-7334
bringen	-7335
▁Prote	-7336
▁sources	-7337
wel	-7338
no	-7339
▁kil	-7340
erner	-7341
▁Technologien	-7342
pective	-7343
▁nieder	-7344
▁reag	-7345
▁begrüße	-7346
TA	-7347
▁kommenden	-7348
▁Einigung	-7349
▁despite	-7350
▁agriculture	-7351
▁Roma	-7352
▁administration	-7353
▁hor	-7354
▁lines	-7355
▁worldwide	-7356
▁animal	-7357
▁Vergangen	-7358
▁Einfluss	-7359
▁Bew	-7360
▁betreffenden	-7361
unge	-7362
schlossen	-7363
▁Tagesordnung	-7364
▁nachhaltige	-7365
▁Monate	-7366
▁Richtlinien	-7367
▁Generation	-7368
▁immediately	-7369
▁Term	-7370
▁bill	-7371
▁parking	-7372
▁raised	-7373
▁Bi	-7374
▁Nations	-7375
▁Wik	-7376
ibe	-7377
▁Nahr	-7378
atible	-7379
▁Solidarität	-7380
▁obligations	-7381
▁film	-7382
ruct	-7383
▁berühm	-7384
▁Angelegenheiten	-7385
▁suchen	-7386
▁ability	-7387
othe	-7388
▁hom	-7389
lungs	-7390
▁Bedürf	-7391
▁Sea	-7392
▁supporting	-7393
▁surve	-7394
ius	-7395
▁PH	-7396
▁Absatz	-7397
gers	-7398
anlage	-7399
▁students	-7400
▁Kur	-7401
▁expressed	-7402
▁cred	-7403
▁größere	-7404
▁Restaurants	-7405
endence	-7406
orea	-7407
▁auszu	-7408
Office	-7409
aren	-7410
▁Mann	-7411
▁Russian	-7412
▁ade	-7413
▁Eisen	-7414
▁jen	-7415
▁morgen	-7416
▁Schweiz	-7417
▁laws	-7418
▁Regierungs	-7419
▁server	-7420
▁increasingly	-7421
▁Test	-7422
▁Every	-7423
▁interested	-7424
▁erfolgt	-7425
▁manufactur	-7426
▁ausgew	-7427
▁Meine	-7428
ancial	-7429
aming	-7430
vements	-7431
▁Mass	-7432
▁KMU	-7433
itch	-7434
▁employees	-7435
fühl	-7436
▁Nah	-7437
▁Voll	-7438
▁numerous	-7439
ls	-7440
▁unten	-7441
star	-7442
▁umfasst	-7443
▁weeks	-7444
Ch	-7445
▁wan	-7446
▁Obwohl	-7447
▁ready	-7448
▁1998	-7449
▁Even	-7450
irms	-7451
▁mission	-7452
theless	-7453
▁Viele	-7454
▁Prä	-7455
▁victims	-7456
zeichnen	-7457
1)	-7458
▁fine	-7459
▁Sonder	-7460
▁signed	-7461
▁exhib	-7462
16	-7463
iums	-7464
▁verfügbar	-7465
▁saying	-7466
▁darunter	-7467
▁concluded	-7468
▁claim	-7469
▁Syr	-7470
▁Serb	-7471
▁Produktions	-7472
▁einsch	-7473
mosphäre	-7474
▁mid	-7475
▁Gest	-7476
▁cou	-7477
book	-7478
European	-7479
▁technischen	-7480
▁Vergangenheit	-7481
▁introduced	-7482
▁2013	-7483
bericht	-7484
▁fisheries	-7485
▁wettbewerbs	-7486
▁circumstances	-7487
▁gere	-7488
▁anerk	-7489
▁Flücht	-7490
▁Energy	-7491
▁Aufenthalt	-7492
▁goal	-7493
▁phot	-7494
▁Start	-7495
▁Del	-7496
▁separate	-7497
▁zahlreichen	-7498
▁Menschenrechts	-7499
▁processes	-7500
%.	-7501
benen	-7502
▁Bran	-7503
▁genu	-7504
▁Forum	-7505
oul	-7506
▁Sommer	-7507
▁möglicherweise	-7508
▁Grundsatz	-7509
▁institutional	-7510
▁formul	-7511
iker	-7512
▁refuge	-7513
▁Krank	-7514
▁Angaben	-7515
riff	-7516
schö	-7517
ighted	-7518
▁gewesen	-7519
▁confidence	-7520
▁Other	-7521
raten	-7522
▁defic	-7523
▁Schlüssel	-7524
▁Digital	-7525
▁stärken	-7526
▁interesting	-7527
▁goes	-7528
pool	-7529
▁Chance	-7530
▁recognis	-7531
▁supports	-7532
▁ourselves	-7533
osoph	-7534
▁Et	-7535
pack	-7536
obby	-7537
▁finanziellen	-7538
assung	-7539
▁vertra	-7540
▁verme	-7541
▁Fakt	-7542
▁valid	-7543
▁kur	-7544
▁starting	-7545
olge	-7546
sych	-7547
▁motor	-7548
▁covered	-7549
▁mehreren	-7550
jekte	-7551
▁erhöhen	-7552
losigkeit	-7553
▁entgegen	-7554
▁--	-7555
itors	-7556
▁Bilder	-7557
Ne	-7558
▁Vizepräsident	-7559
▁Spieler	-7560
▁domestic	-7561
wasser	-7562
asc	-7563
▁ergän	-7564
▁Stabilität	-7565
räge	-7566
▁warum	-7567
iscal	-7568
▁closely	-7569
▁began	-7570
▁entsprechende	-7571
ören	-7572
▁Ang	-7573
▁Lam	-7574
▁Over	-7575
siehe	-7576
▁quant	-7577
▁Konsult	-7578
▁Ak	-7579
▁Val	-7580
▁grant	-7581
▁Trotz	-7582
▁Av	-7583
entrale	-7584
▁Mitte	-7585
▁Zweck	-7586
atively	-7587
▁Falle	-7588
▁Vereinten	-7589
▁gewährleistet	-7590
▁bewusst	-7591
ometer	-7592
▁freien	-7593
▁erforderlichen	-7594
▁11.	-7595
▁Olymp	-7596
komp	-7597
▁einzu	-7598
▁eindeutig	-7599
▁Flex	-7600
▁Madrid	-7601
leb	-7602
oke	-7603
▁tal	-7604
▁Bal	-7605
rogen	-7606
▁halte	-7607
▁trading	-7608
ichert	-7609
▁leider	-7610
▁Asia	-7611
▁operators	-7612
▁Antrag	-7613
try	-7614
▁ehr	-7615
erungen	-7616
folgend	-7617
▁Som	-7618
▁Gran	-7619
▁finally	-7620
▁thought	-7621
▁tomorrow	-7622
▁Gemeinsamen	-7623
▁Berat	-7624
rollen	-7625
▁apartments	-7626
▁übernehmen	-7627
▁2012	-7628
▁Gebäude	-7629
▁fields	-7630
▁Gel	-7631
▁Rechnung	-7632
▁Dienste	-7633
▁genutzt	-7634
▁coordination	-7635
inding	-7636
▁zufrieden	-7637
itäre	-7638
▁photo	-7639
▁occup	-7640
▁Überwachung	-7641
▁charm	-7642
▁Leitlinien	-7643
▁natür	-7644
▁darstellt	-7645
▁Amsterdam	-7646
▁Tw	-7647
älter	-7648
▁Dub	-7649
▁relate	-7650
▁detailed	-7651
▁authority	-7652
▁buy	-7653
▁versucht	-7654
▁frag	-7655
sprogramm	-7656
▁launched	-7657
uly	-7658
▁Empfehlungen	-7659
änge	-7660
▁EADS	-7661
▁Osten	-7662
ätzlich	-7663
lägt	-7664
▁player	-7665
▁Ern	-7666
▁Strategy	-7667
nam	-7668
▁mobil	-7669
▁zweit	-7670
fo	-7671
attle	-7672
ris	-7673
▁NAT	-7674
▁extend	-7675
▁Hinsicht	-7676
▁Ord	-7677
▁syn	-7678
▁fallen	-7679
karte	-7680
rooms	-7681
▁erfüllt	-7682
▁ethn	-7683
▁lokalen	-7684
▁doubt	-7685
▁dienen	-7686
▁Arten	-7687
holders	-7688
▁ES	-7689
▁compens	-7690
▁critic	-7691
▁übernachten	-7692
ätigkeiten	-7693
Mitgliedstaaten	-7694
EMO	-7695
cers	-7696
▁trä	-7697
▁stated	-7698
▁street	-7699
▁eigentlich	-7700
bit	-7701
▁methods	-7702
▁Risiko	-7703
▁geändert	-7704
▁Nutzen	-7705
▁Tradition	-7706
▁tempor	-7707
itime	-7708
kräfte	-7709
▁dead	-7710
▁expert	-7711
▁Wahlen	-7712
▁selection	-7713
called	-7714
uting	-7715
▁namely	-7716
▁Pet	-7717
▁Rumän	-7718
EA	-7719
▁discussions	-7720
▁Acht	-7721
▁advert	-7722
▁umfang	-7723
▁Tagen	-7724
46	-7725
▁Ausbildung	-7726
making	-7727
▁unemployment	-7728
zy	-7729
▁constant	-7730
obility	-7731
▁accepted	-7732
▁provider	-7733
▁Aufnahme	-7734
▁candidate	-7735
▁kürz	-7736
▁gre	-7737
▁modernen	-7738
▁Anspruch	-7739
▁sometimes	-7740
▁eingeb	-7741
▁larger	-7742
wanderung	-7743
oon	-7744
▁wr	-7745
▁eingerichtet	-7746
▁Camp	-7747
▁kontroll	-7748
▁Bu	-7749
▁technische	-7750
▁ol	-7751
ye	-7752
CO	-7753
▁Einsch	-7754
▁nachdem	-7755
17	-7756
▁Zweitens	-7757
▁Freiz	-7758
▁genug	-7759
▁Auto	-7760
▁lost	-7761
▁Küche	-7762
▁falls	-7763
waren	-7764
▁sales	-7765
▁Mittelmeer	-7766
▁historischen	-7767
▁les	-7768
lemente	-7769
sektor	-7770
▁Romania	-7771
▁safegu	-7772
used	-7773
▁Bur	-7774
▁verkauf	-7775
▁Follow	-7776
zeichen	-7777
▁kaum	-7778
▁element	-7779
richtlinie	-7780
▁fordern	-7781
▁Tar	-7782
▁Zwischen	-7783
tempt	-7784
▁income	-7785
▁targets	-7786
▁India	-7787
▁crime	-7788
▁spirit	-7789
▁Instrumente	-7790
▁verantwortlich	-7791
▁Mechan	-7792
▁February	-7793
▁flexible	-7794
▁probably	-7795
▁finanzielle	-7796
▁Arab	-7797
▁Natürlich	-7798
▁2011	-7799
zahlt	-7800
▁Falls	-7801
▁Assoc	-7802
▁erfahren	-7803
▁Aussch	-7804
▁Gebiete	-7805
▁Konflikt	-7806
cia	-7807
▁Las	-7808
▁alone	-7809
▁Engagement	-7810
ildet	-7811
▁zumindest	-7812
▁bodies	-7813
▁angeboten	-7814
ruit	-7815
▁Beitritt	-7816
▁animals	-7817
ensions	-7818
freiheit	-7819
inent	-7820
▁electronic	-7821
▁got	-7822
▁vul	-7823
▁Gast	-7824
▁hear	-7825
▁letzte	-7826
ores	-7827
ae	-7828
▁congratulate	-7829
nel	-7830
▁Begriff	-7831
▁ship	-7832
▁expend	-7833
▁bilden	-7834
▁gering	-7835
maß	-7836
▁entry	-7837
sm	-7838
▁usw	-7839
▁conver	-7840
▁Atmosphäre	-7841
▁conclusion	-7842
▁Kn	-7843
▁Protokoll	-7844
▁ausger	-7845
▁influence	-7846
▁gek	-7847
▁Katastrop	-7848
reise	-7849
▁chann	-7850
▁intell	-7851
▁chance	-7852
Komm	-7853
▁Inhalt	-7854
▁transition	-7855
36	-7856
▁las	-7857
▁begin	-7858
wün	-7859
▁percent	-7860
▁vergessen	-7861
acc	-7862
▁enorm	-7863
▁betroffenen	-7864
▁Waffen	-7865
▁blo	-7866
itten	-7867
zeigen	-7868
zeiten	-7869
aries	-7870
▁immigration	-7871
▁regionale	-7872
mand	-7873
▁opened	-7874
▁Only	-7875
ördert	-7876
avi	-7877
▁wesentlich	-7878
▁berücksichtigen	-7879
▁ones	-7880
▁wählen	-7881
ctor	-7882
Le	-7883
ids	-7884
▁Play	-7885
leitung	-7886
ensive	-7887
▁Costa	-7888
▁stake	-7889
▁payments	-7890
arus	-7891
Os	-7892
Er	-7893
ado	-7894
▁Pla	-7895
▁compar	-7896
▁sal	-7897
cape	-7898
▁Beschäftigungs	-7899
▁datab	-7900
▁Vielfalt	-7901
ham	-7902
ismen	-7903
▁gesetz	-7904
▁ergreifen	-7905
▁Öl	-7906
▁walking	-7907
▁Verfass	-7908
▁Heim	-7909
▁announced	-7910
▁entstehen	-7911
▁Afrika	-7912
icken	-7913
▁reich	-7914
▁Gewähr	-7915
sec	-7916
iding	-7917
gencies	-7918
ancing	-7919
▁Belgium	-7920
ziert	-7921
▁Contact	-7922
icket	-7923
▁Rooms	-7924
SS	-7925
▁club	-7926
▁20%	-7927
▁Sach	-7928
▁Board	-7929
▁van	-7930
verein	-7931
esents	-7932
▁Report	-7933
poses	-7934
▁Malt	-7935
▁entschieden	-7936
IR	-7937
▁followed	-7938
▁Schaden	-7939
rel	-7940
▁critical	-7941
phone	-7942
Aus	-7943
qualität	-7944
▁fixed	-7945
▁Einhaltung	-7946
▁Luxembourg	-7947
▁einzus	-7948
▁vereinbar	-7949
▁dipl	-7950
▁selected	-7951
TS	-7952
last	-7953
▁Märkte	-7954
▁Cr	-7955
anda	-7956
▁reinfor	-7957
▁begrenz	-7958
▁eingeführt	-7959
▁organised	-7960
stat	-7961
▁staatliche	-7962
laus	-7963
Hotel	-7964
▁News	-7965
▁überhaupt	-7966
▁colleagues	-7967
▁Code	-7968
werten	-7969
86	-7970
aria	-7971
▁elegant	-7972
▁investments	-7973
system	-7974
▁militär	-7975
▁raise	-7976
▁Center	-7977
utin	-7978
▁Cap	-7979
▁Wege	-7980
▁Angelegenheit	-7981
▁4-	-7982
erstellen	-7983
▁Middle	-7984
▁Sprachen	-7985
▁Standards	-7986
▁manner	-7987
arta	-7988
▁Ven	-7989
▁restruct	-7990
ta	-7991
▁Ident	-7992
Ab	-7993
figur	-7994
▁Zoll	-7995
auftrag	-7996
▁represents	-7997
▁wiederhol	-7998
ione	-7999
▁derzeitigen	-8000
▁ausschließlich	-8001
▁bathroom	-8002
▁recovery	-8003
ww	-8004
izes	-8005
▁Dat	-8006
iment	-8007
sport	-8008
▁Hoff	-8009
preise	-8010
▁Lassen	-8011
▁platform	-8012
iability	-8013
finanz	-8014
isms	-8015
▁Asyl	-8016
▁deg	-8017
bruch	-8018
▁Prop	-8019
Pl	-8020
▁stets	-8021
▁gesetzt	-8022
▁32	-8023
▁feature	-8024
▁introduction	-8025
▁decor	-8026
▁Tor	-8027
▁Europeans	-8028
▁police	-8029
▁prefer	-8030
▁Guest	-8031
▁bir	-8032
▁Nachfolgend	-8033
hy	-8034
▁recommendations	-8035
arks	-8036
▁beziehen	-8037
▁gegenseit	-8038
▁explo	-8039
▁Übernahme	-8040
▁chines	-8041
▁images	-8042
▁centr	-8043
▁erlaubt	-8044
▁running	-8045
brit	-8046
▁Amts	-8047
stelle	-8048
▁Bürgerinnen	-8049
▁Wo	-8050
▁Indeed	-8051
▁anders	-8052
▁concrete	-8053
▁Most	-8054
hebung	-8055
gesellschaften	-8056
▁Ap	-8057
▁präsent	-8058
handels	-8059
▁ländlichen	-8060
▁reducing	-8061
hner	-8062
▁Liber	-8063
▁Verkauf	-8064
bu	-8065
achtet	-8066
letter	-8067
▁continued	-8068
▁failure	-8069
▁consumption	-8070
▁Your	-8071
▁games	-8072
▁kennen	-8073
▁richtige	-8074
▁nationaler	-8075
schung	-8076
▁anything	-8077
▁paper	-8078
▁konkrete	-8079
▁EW	-8080
▁verabschied	-8081
▁lay	-8082
atterin	-8083
schuld	-8084
▁regulatory	-8085
imit	-8086
▁Lab	-8087
otenzial	-8088
▁Anfrage	-8089
▁überzeugt	-8090
▁ec	-8091
quir	-8092
▁Sweden	-8093
▁worked	-8094
üter	-8095
▁specifically	-8096
▁Wunsch	-8097
▁Grenz	-8098
▁GM	-8099
▁erkennen	-8100
▁generally	-8101
nach	-8102
ichern	-8103
▁beginnen	-8104
▁organisation	-8105
▁zuständige	-8106
▁Mess	-8107
▁Dienstleistungs	-8108
▁Akte	-8109
▁adjust	-8110
▁Nahrungs	-8111
▁Modell	-8112
www	-8113
▁Nun	-8114
▁votes	-8115
▁Erstens	-8116
▁evidence	-8117
▁6.	-8118
jected	-8119
▁purposes	-8120
quality	-8121
▁untern	-8122
▁glob	-8123
Ge	-8124
▁Fore	-8125
▁Tun	-8126
▁planning	-8127
▁People	-8128
▁sports	-8129
▁discussed	-8130
ault	-8131
▁fear	-8132
▁Februar	-8133
▁significantly	-8134
union	-8135
ünstler	-8136
▁benutzt	-8137
hrase	-8138
▁1997	-8139
▁Ferner	-8140
Gr	-8141
schm	-8142
▁rasch	-8143
▁erzielen	-8144
ständen	-8145
▁Zeichen	-8146
▁Bedenken	-8147
▁Herz	-8148
grams	-8149
ranken	-8150
versorgung	-8151
oted	-8152
ICH	-8153
▁combat	-8154
▁Beteiligung	-8155
▁Summit	-8156
▁IM	-8157
▁Jahrhunder	-8158
▁begrüßen	-8159
▁cert	-8160
▁processing	-8161
▁medic	-8162
strategie	-8163
ora	-8164
▁families	-8165
▁criminal	-8166
▁Cypr	-8167
▁Eind	-8168
▁Kauf	-8169
▁Nacht	-8170
rimination	-8171
▁insurance	-8172
90	-8173
▁Ol	-8174
ield	-8175
technolog	-8176
▁Glaub	-8177
▁morning	-8178
▁endgült	-8179
▁Amb	-8180
bur	-8181
▁Diskrimin	-8182
▁Financial	-8183
▁considerable	-8184
▁track	-8185
vollen	-8186
▁vermeiden	-8187
wes	-8188
▁Techn	-8189
▁economies	-8190
▁fellow	-8191
▁Why	-8192
▁lies	-8193
▁betre	-8194
▁spect	-8195
▁NATO	-8196
het	-8197
ión	-8198
▁3,	-8199
▁150	-8200
▁Garant	-8201
▁Schließlich	-8202
erechn	-8203
▁placed	-8204
▁schl	-8205
▁automatisch	-8206
äfen	-8207
▁wanted	-8208
mittelt	-8209
CD	-8210
▁beru	-8211
▁discrimination	-8212
▁Spezial	-8213
▁honour	-8214
sprechen	-8215
▁Zuständ	-8216
▁Sü	-8217
opol	-8218
▁Frankf	-8219
PA	-8220
▁Zimm	-8221
▁participate	-8222
▁experts	-8223
▁referred	-8224
uds	-8225
▁GN	-8226
▁repla	-8227
▁tourist	-8228
▁comments	-8229
etze	-8230
▁paar	-8231
▁wären	-8232
ologischen	-8233
▁mil	-8234
fläche	-8235
▁Aufbau	-8236
gl	-8237
▁expand	-8238
isely	-8239
▁Besonder	-8240
▁apprec	-8241
▁arm	-8242
Ad	-8243
▁trägt	-8244
▁Angesichts	-8245
▁camera	-8246
britann	-8247
▁Autom	-8248
▁disapp	-8249
▁fuer	-8250
uber	-8251
ikanische	-8252
▁beige	-8253
▁village	-8254
▁Lib	-8255
▁managed	-8256
▁gepl	-8257
▁fant	-8258
▁constit	-8259
TE	-8260
anlagen	-8261
▁unbedingt	-8262
year	-8263
▁Wall	-8264
▁Boden	-8265
istence	-8266
▁erheblich	-8267
lägen	-8268
▁stimmen	-8269
▁Gold	-8270
▁erreich	-8271
gramms	-8272
▁Arbeiten	-8273
▁perfe	-8274
vak	-8275
▁genannt	-8276
▁trying	-8277
▁popul	-8278
▁Zustimmung	-8279
▁attempt	-8280
▁gradu	-8281
▁African	-8282
▁compared	-8283
▁Koordinierung	-8284
▁wine	-8285
▁Journal	-8286
▁mountain	-8287
▁powerful	-8288
▁linked	-8289
asts	-8290
▁oben	-8291
itious	-8292
▁happy	-8293
▁gesehen	-8294
abr	-8295
bieter	-8296
ränkungen	-8297
▁notwendigen	-8298
18	-8299
utzung	-8300
zieht	-8301
▁whom	-8302
▁Winter	-8303
▁harm	-8304
Ph	-8305
▁45	-8306
▁usually	-8307
▁insp	-8308
▁changed	-8309
▁zuletzt	-8310
▁Unabhäng	-8311
▁MP	-8312
▁sinn	-8313
▁welches	-8314
▁God	-8315
▁gezeigt	-8316
▁besonderen	-8317
leun	-8318
▁voting	-8319
üge	-8320
RA	-8321
▁verk	-8322
club	-8323
▁graph	-8324
▁propose	-8325
ple	-8326
▁skills	-8327
▁moderne	-8328
▁Kenntnis	-8329
▁geograph	-8330
how	-8331
setz	-8332
▁Communication	-8333
▁investig	-8334
▁süd	-8335
▁improvement	-8336
3%	-8337
▁spread	-8338
▁Doppel	-8339
heren	-8340
▁heard	-8341
▁summit	-8342
sper	-8343
▁heav	-8344
elte	-8345
▁scr	-8346
▁strengthening	-8347
▁listen	-8348
▁angegeben	-8349
▁unto	-8350
▁Entwicklungen	-8351
▁excess	-8352
TV	-8353
ibly	-8354
ologie	-8355
hrte	-8356
iech	-8357
qual	-8358
udes	-8359
▁10%	-8360
agegen	-8361
iant	-8362
▁Haushalt	-8363
rieb	-8364
▁zul	-8365
erte	-8366
afft	-8367
▁earlier	-8368
comp	-8369
▁abgeschlossen	-8370
▁Analyse	-8371
sb	-8372
mon	-8373
▁remember	-8374
7%	-8375
preis	-8376
▁gross	-8377
raucher	-8378
▁Belarus	-8379
▁229-	-8380
▁wahrscheinlich	-8381
▁Tal	-8382
▁weap	-8383
▁lands	-8384
▁fiscal	-8385
imul	-8386
▁herunter	-8387
lying	-8388
▁sold	-8389
▁volle	-8390
▁nöt	-8391
allel	-8392
endet	-8393
▁president	-8394
▁demokratischen	-8395
daten	-8396
▁electricity	-8397
▁Secondly	-8398
▁properly	-8399
unkten	-8400
▁fire	-8401
▁trip	-8402
▁Break	-8403
▁Pakistan	-8404
▁verbundenen	-8405
▁Work	-8406
▁wrong	-8407
▁Download	-8408
▁assist	-8409
set	-8410
▁vehicles	-8411
▁müs	-8412
▁Prime	-8413
▁Städte	-8414
▁serve	-8415
▁superv	-8416
▁constitution	-8417
CC	-8418
ohlen	-8419
▁hervorragen	-8420
▁Karte	-8421
▁Note	-8422
▁erinnern	-8423
haften	-8424
▁Great	-8425
44	-8426
▁Greek	-8427
▁undertak	-8428
Reg	-8429
auern	-8430
levision	-8431
führer	-8432
▁Amendment	-8433
▁fordert	-8434
ray	-8435
▁vulner	-8436
ete	-8437
▁Schwerpunkt	-8438
▁belieb	-8439
äden	-8440
▁menu	-8441
▁Liz	-8442
▁served	-8443
▁presence	-8444
▁producers	-8445
▁400	-8446
schriften	-8447
▁bege	-8448
▁autom	-8449
▁elim	-8450
▁Rechnungs	-8451
▁komfort	-8452
zentrum	-8453
▁gl	-8454
idents	-8455
▁screen	-8456
roh	-8457
▁fresh	-8458
▁recognition	-8459
▁Paket	-8460
verläss	-8461
▁konzentrieren	-8462
▁1995	-8463
▁russ	-8464
iling	-8465
ibilität	-8466
▁plus	-8467
▁Großbritann	-8468
going	-8469
altungen	-8470
IG	-8471
▁prem	-8472
▁difficulties	-8473
▁interpret	-8474
▁verz	-8475
enty	-8476
ointed	-8477
▁luxur	-8478
▁meetings	-8479
quem	-8480
dienste	-8481
▁handeln	-8482
▁Systeme	-8483
▁2014	-8484
▁Non	-8485
▁jem	-8486
umm	-8487
▁protected	-8488
▁Fax	-8489
amin	-8490
▁demands	-8491
▁expenditure	-8492
▁SMEs	-8493
artner	-8494
▁PHP	-8495
▁höher	-8496
▁darstellen	-8497
agne	-8498
wohner	-8499
▁functions	-8500
▁Frem	-8501
▁euch	-8502
▁Beweg	-8503
ael	-8504
▁behin	-8505
ago	-8506
▁email	-8507
rach	-8508
▁understanding	-8509
sam	-8510
▁extensive	-8511
pendence	-8512
▁Europäer	-8513
▁Milit	-8514
▁automatically	-8515
ferences	-8516
erzeug	-8517
▁PDF	-8518
▁Terr	-8519
▁stable	-8520
▁Zunächst	-8521
tete	-8522
▁cell	-8523
▁pain	-8524
▁ries	-8525
▁facing	-8526
▁shared	-8527
izing	-8528
omet	-8529
▁Allgemein	-8530
ING	-8531
▁Haft	-8532
75	-8533
▁machine	-8534
▁played	-8535
▁MEMO	-8536
▁Turk	-8537
▁Partei	-8538
▁swimming	-8539
▁anz	-8540
▁+32	-8541
lungen	-8542
▁ausgezeichnet	-8543
▁französischen	-8544
▁0,	-8545
leiten	-8546
enk	-8547
▁becoming	-8548
linge	-8549
PT	-8550
bring	-8551
▁adapt	-8552
▁Michel	-8553
▁Veränderungen	-8554
▁Genehm	-8555
▁umfassende	-8556
▁collection	-8557
hotel	-8558
▁cos	-8559
▁länger	-8560
coming	-8561
▁occur	-8562
▁trust	-8563
▁kit	-8564
▁7.	-8565
▁Act	-8566
▁hund	-8567
▁Inc	-8568
▁Priorität	-8569
▁Mindest	-8570
▁erneuer	-8571
▁multip	-8572
mod	-8573
führten	-8574
▁mic	-8575
▁Agency	-8576
▁sauber	-8577
road	-8578
▁sole	-8579
werb	-8580
▁Bush	-8581
▁defined	-8582
▁zuvor	-8583
▁EN	-8584
▁Arbeitsmarkt	-8585
▁map	-8586
▁abzu	-8587
▁III	-8588
iente	-8589
▁Kurz	-8590
ounge	-8591
▁breit	-8592
▁Belgien	-8593
▁stattfinden	-8594
partner	-8595
▁pictures	-8596
▁Verpflichtung	-8597
▁AK	-8598
netz	-8599
▁mill	-8600
▁Apartments	-8601
Gen	-8602
▁Director	-8603
institution	-8604
ufe	-8605
▁Lehr	-8606
▁Paper	-8607
aket	-8608
▁Voraussetzungen	-8609
alia	-8610
▁beha	-8611
▁hab	-8612
▁Installation	-8613
stände	-8614
▁erg	-8615
▁cast	-8616
▁Maßnahme	-8617
▁actual	-8618
▁Klein	-8619
▁wesentlichen	-8620
▁degree	-8621
▁Villa	-8622
▁ersch	-8623
▁clar	-8624
▁reception	-8625
irus	-8626
leisch	-8627
▁gelangen	-8628
▁absolutely	-8629
▁Each	-8630
▁verfolgen	-8631
▁Roman	-8632
▁ahead	-8633
künft	-8634
ienten	-8635
verse	-8636
▁siehe	-8637
▁beteiligt	-8638
▁erstellt	-8639
▁sets	-8640
älfte	-8641
▁medical	-8642
wie	-8643
▁Bulgaria	-8644
ilot	-8645
künd	-8646
▁Leute	-8647
artigen	-8648
▁corresp	-8649
▁Dateien	-8650
▁pie	-8651
isierten	-8652
information	-8653
jo	-8654
34	-8655
▁sil	-8656
▁angezeigt	-8657
▁teilnehmen	-8658
▁Ihres	-8659
▁ged	-8660
aktiv	-8661
UNG	-8662
ingu	-8663
▁inn	-8664
umn	-8665
▁talking	-8666
erungs	-8667
▁wert	-8668
▁easier	-8669
▁installation	-8670
▁Nr	-8671
▁Risiken	-8672
▁vert	-8673
▁wants	-8674
▁proceedings	-8675
äher	-8676
▁defence	-8677
▁Association	-8678
▁duty	-8679
▁Son	-8680
▁Wachstums	-8681
ym	-8682
spunkt	-8683
▁jüngsten	-8684
▁buildings	-8685
▁thousands	-8686
▁Mrd	-8687
▁speech	-8688
▁PR	-8689
▁Partners	-8690
amente	-8691
▁dedic	-8692
▁Gleichzeitig	-8693
▁Finanzierungs	-8694
▁hält	-8695
▁jeweils	-8696
▁Bade	-8697
▁Paul	-8698
▁allgemeine	-8699
▁rechts	-8700
iations	-8701
▁prospect	-8702
▁compliance	-8703
Kon	-8704
▁Bos	-8705
atellite	-8706
▁willing	-8707
▁programs	-8708
▁season	-8709
▁Private	-8710
▁Support	-8711
24	-8712
▁speziell	-8713
▁Garten	-8714
▁Sow	-8715
för	-8716
▁burden	-8717
▁membership	-8718
Vor	-8719
▁freue	-8720
▁Wiederauf	-8721
▁AL	-8722
ünden	-8723
entscheid	-8724
aw	-8725
riminal	-8726
▁profitieren	-8727
▁generation	-8728
▁Vertragsverletz	-8729
umer	-8730
either	-8731
▁teilweise	-8732
▁gemeinschaft	-8733
kommunik	-8734
▁confirm	-8735
▁differences	-8736
öffnen	-8737
▁ferner	-8738
▁controls	-8739
itzt	-8740
▁weiterer	-8741
▁Schlussfolger	-8742
▁Atlant	-8743
▁Kohäs	-8744
▁watch	-8745
▁Ministers	-8746
▁declar	-8747
garn	-8748
▁Kindern	-8749
▁strict	-8750
▁Tas	-8751
▁tit	-8752
▁zuständigen	-8753
▁fulfil	-8754
▁angesprochen	-8755
DA	-8756
▁spacious	-8757
▁Gaz	-8758
▁gleiche	-8759
▁trave	-8760
▁ging	-8761
▁Status	-8762
▁Urteil	-8763
▁currency	-8764
▁persönlichen	-8765
▁gegr	-8766
▁Card	-8767
▁Found	-8768
missionen	-8769
iary	-8770
▁Station	-8771
▁Framework	-8772
ränken	-8773
unk	-8774
▁Head	-8775
▁entweder	-8776
▁Kind	-8777
▁geeignet	-8778
atik	-8779
▁erfolgen	-8780
▁informed	-8781
▁prin	-8782
uts	-8783
▁territory	-8784
:0	-8785
ras	-8786
▁dürfte	-8787
▁trag	-8788
▁allowing	-8789
▁PRO	-8790
▁1996	-8791
▁quar	-8792
▁agencies	-8793
▁Ratsvorsitz	-8794
▁establishing	-8795
iov	-8796
▁Any	-8797
▁says	-8798
EF	-8799
▁destro	-8800
▁Datei	-8801
▁His	-8802
kap	-8803
▁marketing	-8804
▁Idee	-8805
andidaten	-8806
▁estim	-8807
▁associated	-8808
▁gekommen	-8809
▁Licht	-8810
▁Repr	-8811
onym	-8812
▁Eastern	-8813
lebr	-8814
werke	-8815
▁Pack	-8816
▁ambitious	-8817
▁zukünft	-8818
▁Landwir	-8819
igrants	-8820
▁asyl	-8821
▁outcome	-8822
füll	-8823
▁Angriff	-8824
▁jene	-8825
▁governance	-8826
▁uses	-8827
▁lösen	-8828
▁reject	-8829
Al	-8830
▁entit	-8831
▁conclusions	-8832
▁Regelungen	-8833
▁Entschließungs	-8834
▁Profess	-8835
▁Kontroll	-8836
▁advanced	-8837
schiede	-8838
▁conduct	-8839
▁precisely	-8840
▁Klimawandel	-8841
behörde	-8842
▁benach	-8843
38	-8844
▁radio	-8845
▁erf	-8846
▁Schweden	-8847
▁vorgeschlagenen	-8848
edia	-8849
▁Dre	-8850
▁getting	-8851
zieren	-8852
▁Irish	-8853
▁kons	-8854
▁gram	-8855
▁match	-8856
▁continues	-8857
rok	-8858
▁glauben	-8859
▁unternehmen	-8860
iche	-8861
▁gefördert	-8862
utch	-8863
lern	-8864
▁Cast	-8865
etten	-8866
▁Fot	-8867
▁schwierig	-8868
gewöhn	-8869
▁Warum	-8870
▁zentrale	-8871
reitung	-8872
▁failed	-8873
▁asylum	-8874
mögen	-8875
denken	-8876
/10	-8877
▁delay	-8878
zwischen	-8879
▁Einkauf	-8880
▁Us	-8881
märkte	-8882
stands	-8883
▁Foreign	-8884
▁playing	-8885
▁Funktionen	-8886
▁Leistungen	-8887
▁griech	-8888
▁Rumänien	-8889
▁festgestellt	-8890
▁wachs	-8891
▁braucht	-8892
▁Deutsche	-8893
6%	-8894
▁cas	-8895
▁Herausforderung	-8896
person	-8897
ifications	-8898
▁restructuring	-8899
▁district	-8900
ünfte	-8901
idential	-8902
▁Street	-8903
▁Palestinian	-8904
▁applies	-8905
▁figures	-8906
▁Schengen	-8907
nehmern	-8908
▁Wass	-8909
▁zufolge	-8910
▁dramat	-8911
▁festge	-8912
ente	-8913
▁box	-8914
▁goals	-8915
höhung	-8916
▁24-	-8917
▁Mensch	-8918
inu	-8919
▁promotion	-8920
ugos	-8921
▁Dann	-8922
▁hochwert	-8923
unsten	-8924
flanzen	-8925
▁laid	-8926
möglich	-8927
▁Berichte	-8928
▁convenient	-8929
▁ski	-8930
▁sort	-8931
▁Glück	-8932
▁offens	-8933
▁ergeben	-8934
Kommissar	-8935
ollten	-8936
▁multi	-8937
▁structures	-8938
▁purchase	-8939
atastrop	-8940
▁hot	-8941
▁Kal	-8942
vorschlag	-8943
▁components	-8944
▁Click	-8945
▁Gesprä	-8946
▁Meeres	-8947
▁aktuelle	-8948
▁tabled	-8949
mitglied	-8950
▁internationaler	-8951
▁Kapaz	-8952
▁Malta	-8953
▁conv	-8954
▁endlich	-8955
gs	-8956
ils	-8957
▁gewährt	-8958
ema	-8959
entwicklung	-8960
▁Sehens	-8961
▁Abs	-8962
▁metres	-8963
▁consolid	-8964
▁angen	-8965
▁refle	-8966
▁incor	-8967
▁flexibility	-8968
prechen	-8969
▁begrüßt	-8970
▁Datenschutz	-8971
▁availability	-8972
▁umwelt	-8973
▁Grundrechte	-8974
▁prä	-8975
▁unz	-8976
gebaut	-8977
fuhr	-8978
▁barr	-8979
▁Hersteller	-8980
lehen	-8981
▁Überprüfung	-8982
1%	-8983
ensus	-8984
oring	-8985
üb	-8986
▁cooper	-8987
oyal	-8988
teten	-8989
index	-8990
hilfen	-8991
▁ausländ	-8992
ailing	-8993
ida	-8994
gende	-8995
▁Firmen	-8996
▁ausgewogen	-8997
▁terrace	-8998
▁gesprochen	-8999
pen	-9000
ärm	-9001
▁Wand	-9002
▁permanent	-9003
ala	-9004
▁Bemerk	-9005
EO	-9006
▁hinzuf	-9007
▁otherwise	-9008
▁Motor	-9009
▁überprüfen	-9010
▁positions	-9011
▁went	-9012
▁withdra	-9013
▁benutzen	-9014
▁bestätigt	-9015
▁appeal	-9016
▁verfolgt	-9017
LAN	-9018
64	-9019
erten	-9020
leihen	-9021
▁danke	-9022
▁aufgefordert	-9023
▁funktioniert	-9024
▁beruf	-9025
▁zahlen	-9026
▁exercise	-9027
▁Vo	-9028
▁THE	-9029
▁mobility	-9030
▁facilitate	-9031
agraph	-9032
▁Umweltschutz	-9033
De	-9034
▁Spr	-9035
▁scen	-9036
schau	-9037
▁chemical	-9038
▁irgend	-9039
abilities	-9040
▁haupts	-9041
▁charged	-9042
▁immediate	-9043
▁Gipfel	-9044
▁difference	-9045
üste	-9046
▁bitten	-9047
▁peaceful	-9048
▁é	-9049
▁touch	-9050
time	-9051
▁Prakt	-9052
▁unc	-9053
▁Mün	-9054
▁save	-9055
▁tourism	-9056
0.	-9057
▁wirksam	-9058
uding	-9059
▁delivery	-9060
▁Single	-9061
▁800	-9062
▁Defiz	-9063
▁Treffen	-9064
ureau	-9065
▁auth	-9066
▁übertragen	-9067
▁fle	-9068
kurr	-9069
▁rech	-9070
▁klare	-9071
▁yourself	-9072
organisationen	-9073
ses	-9074
▁studies	-9075
scher	-9076
zeichnete	-9077
▁möglichst	-9078
▁Kenn	-9079
8%	-9080
▁format	-9081
▁Rome	-9082
▁dangerous	-9083
▁Plen	-9084
▁coff	-9085
brauch	-9086
▁closer	-9087
▁evening	-9088
äuser	-9089
▁Gent	-9090
▁upgra	-9091
▁Fernse	-9092
▁clients	-9093
▁Straße	-9094
▁Never	-9095
▁Völker	-9096
▁instance	-9097
▁spending	-9098
iat	-9099
▁Power	-9100
▁Ja	-9101
▁Kyoto	-9102
gypt	-9103
▁numbers	-9104
▁transaction	-9105
itzerland	-9106
▁visitors	-9107
▁ung	-9108
▁Sam	-9109
▁relativ	-9110
▁vergleich	-9111
▁Umstruktur	-9112
▁besseren	-9113
iler	-9114
rate	-9115
▁acqu	-9116
▁Hause	-9117
▁Ev	-9118
gewicht	-9119
▁Bay	-9120
▁Betr	-9121
ideos	-9122
▁dagegen	-9123
▁Globalisierung	-9124
▁Defin	-9125
▁Ungarn	-9126
▁gave	-9127
öder	-9128
▁Mitteln	-9129
"...	-9130
räft	-9131
icking	-9132
ickets	-9133
▁psych	-9134
uit	-9135
mbuds	-9136
▁Herstellung	-9137
▁Charakter	-9138
2%	-9139
Sh	-9140
▁verur	-9141
▁Ear	-9142
▁waters	-9143
▁addressed	-9144
icherungs	-9145
▁considers	-9146
▁unabhängig	-9147
▁black	-9148
..."	-9149
▁künftigen	-9150
zahlen	-9151
▁erwähnt	-9152
For	-9153
▁älter	-9154
▁befürwor	-9155
▁legen	-9156
bindung	-9157
▁packages	-9158
▁Frankfurt	-9159
▁bezeichnet	-9160
▁politischer	-9161
▁railway	-9162
MS	-9163
abilität	-9164
▁Eisenbahn	-9165
▁remind	-9166
▁Charter	-9167
▁Netzwerk	-9168
cknow	-9169
▁Liberalisierung	-9170
tzen	-9171
reifen	-9172
▁hosp	-9173
▁submit	-9174
▁communities	-9175
▁suc	-9176
ktive	-9177
üher	-9178
inken	-9179
▁anderes	-9180
▁Stimme	-9181
▁quot	-9182
▁akzeptieren	-9183
▁Großbritannien	-9184
▁benötigt	-9185
▁exem	-9186
▁wirk	-9187
ktivität	-9188
bü	-9189
▁..."	-9190
▁Bon	-9191
▁fert	-9192
gence	-9193
▁Qualitäts	-9194
▁mix	-9195
▁Luxemburg	-9196
icks	-9197
ringerung	-9198
dis	-9199
▁erhöht	-9200
▁Beschreibung	-9201
▁brand	-9202
▁individuals	-9203
▁Bek	-9204
▁schlägt	-9205
▁approxim	-9206
▁operational	-9207
▁dealing	-9208
▁steigen	-9209
▁britischen	-9210
▁ök	-9211
ista	-9212
embly	-9213
▁Verst	-9214
▁appears	-9215
▁Tschech	-9216
down	-9217
▁erör	-9218
22	-9219
▁sides	-9220
▁manage	-9221
▁aircraft	-9222
▁Breakfast	-9223
ologische	-9224
]],	-9225
osing	-9226
imb	-9227
▁rom	-9228
▁Hafen	-9229
hnung	-9230
igerung	-9231
▁acknow	-9232
▁Produkten	-9233
asil	-9234
▁verstärkt	-9235
▁2015	-9236
▁Körper	-9237
▁Schla	-9238
▁eingesch	-9239
▁science	-9240
▁combined	-9241
▁Prüf	-9242
ssystem	-9243
wissen	-9244
▁lesen	-9245
▁komplex	-9246
▁achieving	-9247
▁politics	-9248
▁comment	-9249
räume	-9250
▁Budget	-9251
▁betrachtet	-9252
▁Sorge	-9253
ova	-9254
▁seven	-9255
orient	-9256
▁informieren	-9257
▁Vertrie	-9258
klärungen	-9259
do	-9260
▁Teile	-9261
heits	-9262
irmed	-9263
▁Hälfte	-9264
▁Voraus	-9265
▁command	-9266
▁Hungary	-9267
▁Swiss	-9268
▁Suche	-9269
▁Harmon	-9270
▁Verständ	-9271
▁spielt	-9272
▁dan	-9273
▁größeren	-9274
▁exactly	-9275
▁erklären	-9276
ervation	-9277
▁arrangements	-9278
▁anc	-9279
▁Sehenswürd	-9280
inder	-9281
▁mittl	-9282
oman	-9283
▁Zul	-9284
▁erstellen	-9285
aufen	-9286
▁Effizienz	-9287
▁jur	-9288
▁Phase	-9289
hle	-9290
▁regret	-9291
tempor	-9292
▁Lo	-9293
▁beds	-9294
öffentlich	-9295
▁ausreichend	-9296
gien	-9297
▁symbol	-9298
▁miteinander	-9299
ée	-9300
asters	-9301
▁database	-9302
▁informiert	-9303
▁bott	-9304
▁mutual	-9305
▁voice	-9306
▁stimul	-9307
▁succeed	-9308
gets	-9309
▁Formen	-9310
▁connect	-9311
ückt	-9312
▁hoffen	-9313
▁kulturellen	-9314
tere	-9315
▁Polize	-9316
▁geleistet	-9317
▁nachhaltigen	-9318
bereiche	-9319
ima	-9320
rüst	-9321
▁Rein	-9322
▁Anpassung	-9323
▁Archite	-9324
▁gegenwärtig	-9325
▁Kritik	-9326
klus	-9327
▁Dimension	-9328
▁unf	-9329
▁learning	-9330
▁Bol	-9331
lined	-9332
▁Sand	-9333
▁boost	-9334
▁Abschließend	-9335
bere	-9336
actions	-9337
▁Achtung	-9338
▁Haltung	-9339
▁brief	-9340
rak	-9341
jährigen	-9342
▁cars	-9343
bald	-9344
▁scale	-9345
TER	-9346
anische	-9347
▁identified	-9348
▁disease	-9349
▁Kol	-9350
ula	-9351
▁bio	-9352
▁proposes	-9353
spolit	-9354
ventions	-9355
▁factors	-9356
▁Geschä	-9357
▁moral	-9358
▁planned	-9359
▁gegenwärtigen	-9360
repr	-9361
izont	-9362
▁Slovak	-9363
▁Zeiten	-9364
▁Dennoch	-9365
ifiziert	-9366
▁opposition	-9367
fachen	-9368
▁Menge	-9369
▁television	-9370
5-	-9371
Or	-9372
▁zerst	-9373
zep	-9374
ishing	-9375
▁Kompet	-9376
▁inside	-9377
uba	-9378
äck	-9379
stimm	-9380
▁white	-9381
▁statements	-9382
▁Unabhängigkeit	-9383
▁spent	-9384
▁nächste	-9385
SQL	-9386
dire	-9387
fallen	-9388
▁Teilnehmer	-9389
sequently	-9390
▁Krä	-9391
▁Indien	-9392
▁Klicken	-9393
iets	-9394
wachstum	-9395
▁gefordert	-9396
cont	-9397
▁love	-9398
▁Cyprus	-9399
ilst	-9400
▁Colle	-9401
issens	-9402
▁grammat	-9403
▁Diskriminierung	-9404
aves	-9405
1/	-9406
▁pet	-9407
ypern	-9408
bum	-9409
▁Leistungs	-9410
▁definition	-9411
▁hands	-9412
aschine	-9413
▁Problemen	-9414
IE	-9415
▁aufzu	-9416
▁signal	-9417
▁Studien	-9418
▁guarantees	-9419
ando	-9420
nex	-9421
▁herz	-9422
▁effekt	-9423
▁vorschlagen	-9424
tribution	-9425
▁Dollar	-9426
▁Once	-9427
ador	-9428
pap	-9429
miss	-9430
▁White	-9431
zeption	-9432
uisine	-9433
UN	-9434
▁3-	-9435
▁core	-9436
active	-9437
wander	-9438
▁tasks	-9439
▁restrictions	-9440
▁items	-9441
fähig	-9442
▁Chem	-9443
▁species	-9444
▁attach	-9445
▁bequem	-9446
lager	-9447
▁19.	-9448
▁Tool	-9449
▁update	-9450
▁positiv	-9451
▁completed	-9452
▁consideration	-9453
wal	-9454
olden	-9455
itze	-9456
▁Führung	-9457
▁suitable	-9458
▁acquisition	-9459
▁hop	-9460
▁Both	-9461
▁perspective	-9462
▁Gesam	-9463
▁entirely	-9464
▁fuel	-9465
▁proc	-9466
nahm	-9467
▁Struct	-9468
▁kontext	-9469
▁Zweifel	-9470
ington	-9471
▁einiger	-9472
▁hauptsächlich	-9473
liegt	-9474
▁Wicht	-9475
▁deficit	-9476
▁Verringerung	-9477
▁unge	-9478
▁geprü	-9479
▁orient	-9480
▁prevention	-9481
▁alte	-9482
▁Versuch	-9483
▁picture	-9484
▁exclusive	-9485
▁spend	-9486
▁notice	-9487
▁intervention	-9488
atlant	-9489
▁Schulden	-9490
▁einsetzen	-9491
▁celebr	-9492
▁SA	-9493
▁photograph	-9494
▁Ve	-9495
gal	-9496
like	-9497
▁shops	-9498
▁zurückge	-9499
9%	-9500
Ro	-9501
▁voraus	-9502
▁territorial	-9503
▁Vorbereitung	-9504
▁Inhalte	-9505
▁koordin	-9506
bew	-9507
▁Sinn	-9508
▁humanitäre	-9509
spar	-9510
▁phase	-9511
▁prohib	-9512
▁Switzerland	-9513
▁Ombuds	-9514
▁Titel	-9515
▁Entwurf	-9516
isierte	-9517
venue	-9518
ura	-9519
▁court	-9520
▁Jac	-9521
km	-9522
▁belong	-9523
▁wenden	-9524
▁Vielzahl	-9525
zo	-9526
ossible	-9527
▁Förder	-9528
▁binding	-9529
▁Presse	-9530
weist	-9531
▁Funds	-9532
▁Fälle	-9533
▁collabor	-9534
idung	-9535
▁Zahlen	-9536
▁Verletz	-9537
▁Agricult	-9538
▁Wellness	-9539
▁mechanisms	-9540
▁dimension	-9541
▁Wirkung	-9542
sized	-9543
▁dient	-9544
ua	-9545
igem	-9546
▁adequate	-9547
▁isol	-9548
hören	-9549
▁contrary	-9550
▁Democrats	-9551
SC	-9552
▁Tem	-9553
▁devices	-9554
▁Croat	-9555
▁pleasant	-9556
▁nennen	-9557
▁introduce	-9558
▁amerikanischen	-9559
▁Forderung	-9560
sichts	-9561
▁sämtliche	-9562
▁diss	-9563
▁background	-9564
▁erleichtern	-9565
lösung	-9566
▁Berücksicht	-9567
▁ausdrücklich	-9568
ource	-9569
▁advice	-9570
▁plants	-9571
▁Anlagen	-9572
▁Komfort	-9573
▁Anwendungen	-9574
amber	-9575
▁Front	-9576
▁verabschiedet	-9577
▁durchaus	-9578
▁Black	-9579
lechter	-9580
▁exceed	-9581
▁Stil	-9582
▁safeguard	-9583
▁()	-9584
PC	-9585
▁Exp	-9586
▁Prodi	-9587
geiz	-9588
▁Beschl	-9589
aktionen	-9590
▁versehen	-9591
▁Beschwer	-9592
krieg	-9593
Script	-9594
tellect	-9595
▁genuine	-9596
▁hinweisen	-9597
bürger	-9598
▁bemer	-9599
▁seriously	-9600
▁Due	-9601
▁Telefon	-9602
▁solcher	-9603
▁Streit	-9604
▁sobald	-9605
▁Maße	-9606
phrase	-9607
▁Ausnahme	-9608
ques	-9609
▁mechanism	-9610
Ein	-9611
log	-9612
▁Alex	-9613
▁gern	-9614
án	-9615
▁bilater	-9616
lete	-9617
▁staatlichen	-9618
reten	-9619
▁drink	-9620
▁erh	-9621
windigkeit	-9622
afe	-9623
▁Safety	-9624
▁gesp	-9625
reichung	-9626
▁Firma	-9627
▁dauer	-9628
mack	-9629
▁operate	-9630
500	-9631
▁aktual	-9632
lisch	-9633
▁color	-9634
prinzip	-9635
▁Name	-9636
▁kitchen	-9637
▁umfassenden	-9638
▁Bis	-9639
▁pension	-9640
▁bilateral	-9641
▁Moment	-9642
▁Special	-9643
4%	-9644
annes	-9645
▁Rotary	-9646
▁sitting	-9647
▁verloren	-9648
▁collect	-9649
▁Lou	-9650
▁Data	-9651
icians	-9652
▁contacts	-9653
lätzen	-9654
▁Immobil	-9655
▁vent	-9656
▁Verfahrens	-9657
can	-9658
ameter	-9659
▁Van	-9660
▁1994	-9661
▁forget	-9662
▁compatible	-9663
▁äuß	-9664
▁Sloven	-9665
▁elimin	-9666
▁Gericht	-9667
▁approval	-9668
▁ausführ	-9669
▁10.	-9670
lichten	-9671
▁becomes	-9672
▁contracts	-9673
▁Texte	-9674
ireless	-9675
▁David	-9676
▁Direkt	-9677
▁landwirtschaft	-9678
utzer	-9679
▁Where	-9680
▁welcher	-9681
▁Leistung	-9682
▁balanced	-9683
▁Media	-9684
ichtlinie	-9685
licherweise	-9686
▁Foundation	-9687
▁Mitgliedern	-9688
mittlung	-9689
▁konstru	-9690
▁forth	-9691
▁equality	-9692
▁Grundsätze	-9693
▁ER	-9694
cause	-9695
▁expla	-9696
▁dispos	-9697
▁Finland	-9698
▁Author	-9699
▁owners	-9700
struction	-9701
▁parliamentary	-9702
holung	-9703
▁Erhöhung	-9704
Innen	-9705
▁Latin	-9706
▁treten	-9707
▁jährlich	-9708
▁sty	-9709
igern	-9710
▁sieben	-9711
cast	-9712
▁21.	-9713
▁abst	-9714
▁leader	-9715
▁Super	-9716
▁Ausgang	-9717
▁sorg	-9718
▁speaking	-9719
iques	-9720
▁wonderful	-9721
▁zählen	-9722
ev	-9723
▁Nik	-9724
▁wenigen	-9725
enntnisse	-9726
▁dig	-9727
▁Out	-9728
▁Main	-9729
▁starke	-9730
ga	-9731
cco	-9732
knü	-9733
odell	-9734
▁resort	-9735
▁election	-9736
yes	-9737
▁ober	-9738
▁ausges	-9739
▁door	-9740
▁wünschen	-9741
ibrary	-9742
tends	-9743
plätze	-9744
▁Check	-9745
grenzen	-9746
▁zugunsten	-9747
det	-9748
▁Seine	-9749
chem	-9750
▁Empfehlung	-9751
▁strongly	-9752
▁Heimat	-9753
▁übrigen	-9754
▁Beob	-9755
▁Jetzt	-9756
LE	-9757
▁#	-9758
▁globale	-9759
▁independence	-9760
endum	-9761
ormen	-9762
▁cards	-9763
▁names	-9764
▁covers	-9765
▁models	-9766
▁detail	-9767
▁improvements	-9768
"-	-9769
wagen	-9770
▁Bulgarien	-9771
▁released	-9772
chmal	-9773
▁condem	-9774
▁beträcht	-9775
▁behaup	-9776
▁phil	-9777
▁enables	-9778
condition	-9779
▁Rand	-9780
▁Zypern	-9781
▁motion	-9782
▁cuisine	-9783
▁besuchen	-9784
▁renewable	-9785
▁accounts	-9786
▁Berufs	-9787
ram	-9788
▁Korea	-9789
▁Then	-9790
▁künftig	-9791
▁kostenlos	-9792
▁Tätigkeiten	-9793
▁sicherstellen	-9794
alys	-9795
ker	-9796
▁applicable	-9797
haber	-9798
accept	-9799
enkt	-9800
zil	-9801
meld	-9802
▁continuing	-9803
deck	-9804
umin	-9805
▁Holz	-9806
33	-9807
▁England	-9808
ichtete	-9809
▁unternommen	-9810
▁lag	-9811
▁vac	-9812
▁requested	-9813
▁registered	-9814
▁Nichtraucher	-9815
▁calling	-9816
▁pollution	-9817
▁finanziert	-9818
▁Ideen	-9819
▁church	-9820
▁client	-9821
▁Steuern	-9822
▁Salz	-9823
49	-9824
fel	-9825
▁arbeitet	-9826
iro	-9827
gelassen	-9828
▁bereitgestellt	-9829
▁emergency	-9830
▁dennoch	-9831
▁inspect	-9832
▁Austausch	-9833
▁Fac	-9834
▁Verz	-9835
▁Leider	-9836
öse	-9837
government	-9838
reisen	-9839
▁foll	-9840
▁bringing	-9841
äten	-9842
▁Austrian	-9843
▁Welche	-9844
ategory	-9845
▁evaluation	-9846
▁dete	-9847
▁gemüt	-9848
itage	-9849
▁Mel	-9850
▁urgent	-9851
▁Hinweis	-9852
----	-9853
▁Besucher	-9854
onte	-9855
▁VAT	-9856
▁truly	-9857
▁letter	-9858
▁attractions	-9859
llos	-9860
▁Foto	-9861
▁Worte	-9862
sequent	-9863
▁limits	-9864
▁migration	-9865
▁Minderheiten	-9866
illing	-9867
▁Internal	-9868
▁described	-9869
▁empfehl	-9870
karten	-9871
▁Bestandteil	-9872
zur	-9873
park	-9874
version	-9875
▁Lord	-9876
inning	-9877
irtschaft	-9878
▁dur	-9879
posit	-9880
▁Common	-9881
▁Betriebs	-9882
▁2009.	-9883
▁Zugriff	-9884
gänglich	-9885
▁extended	-9886
attform	-9887
gestimmt	-9888
▁bear	-9889
▁Sehr	-9890
absicht	-9891
box	-9892
ktiven	-9893
▁Hindern	-9894
▁helping	-9895
▁Aufgrund	-9896
▁31	-9897
▁maritime	-9898
▁8.	-9899
äumen	-9900
▁pred	-9901
▁Halb	-9902
▁Saint	-9903
▁Prag	-9904
▁genet	-9905
▁grounds	-9906
▁corporate	-9907
▁verlassen	-9908
▁Fortschritt	-9909
▁thinking	-9910
▁diskutieren	-9911
▁attractive	-9912
▁Aid	-9913
▁Mutter	-9914
▁primary	-9915
free	-9916
tenance	-9917
▁involving	-9918
steuer	-9919
▁issued	-9920
wareness	-9921
Art	-9922
ädt	-9923
▁Ans	-9924
wiesen	-9925
arischen	-9926
▁obligation	-9927
▁session	-9928
▁Wirk	-9929
▁Dutch	-9930
okraten	-9931
▁liberalisation	-9932
▁AB	-9933
erei	-9934
▁Nice	-9935
▁zuständig	-9936
iano	-9937
▁Ausland	-9938
▁forest	-9939
akete	-9940
▁Währung	-9941
Date	-9942
▁rob	-9943
▁Aussicht	-9944
▁told	-9945
oud	-9946
▁vorliegenden	-9947
▁Fähigkeit	-9948
tzeit	-9949
▁Worten	-9950
▁weapons	-9951
▁Opp	-9952
ibel	-9953
bad	-9954
▁gewinnen	-9955
▁Experten	-9956
fers	-9957
▁Verteidigung	-9958
▁Vorteil	-9959
▁medizin	-9960
kamp	-9961
schiff	-9962
ternen	-9963
▁Bedarf	-9964
rich	-9965
ütze	-9966
derten	-9967
konferenz	-9968
ague	-9969
▁Very	-9970
zust	-9971
oster	-9972
▁reve	-9973
▁erfordert	-9974
▁reasonable	-9975
▁?	-9976
▁requests	-9977
etter	-9978
▁Control	-9979
▁Airbus	-9980
▁unterzeichnet	-9981
▁Studie	-9982
▁vision	-9983
▁Politiker	-9984
ía	-9985
▁gestalten	-9986
yer	-9987
iertes	-9988
▁Peter	-9989
▁überall	-9990
▁spanischen	-9991
▁Nutzer	-9992
▁biggest	-9993
48	-9994
mas	-9995
▁Nachfrage	-9996
▁täglich	-9997
▁Infl	-9998
▁Aktionen	-9999
▁Elemente	-10000
▁unaccept	-10001
▁storage	-10002
▁(19	-10003
▁kürzlich	-10004
▁obst	-10005
istisch	-10006
kan	-10007
▁Internationalen	-10008
ibet	-10009
ieht	-10010
▁Stadtz	-10011
▁incent	-10012
:30	-10013
zne	-10014
▁Element	-10015
▁Veröffentlich	-10016
▁lä	-10017
▁üb	-10018
▁hour	-10019
▁Another	-10020
akers	-10021
Ex	-10022
Sterne	-10023
▁vorlegen	-10024
▁Federal	-10025
▁Aspekt	-10026
ombination	-10027
ünen	-10028
▁Merk	-10029
▁Bor	-10030
▁ergriffen	-10031
alty	-10032
▁Wegen	-10033
▁geltenden	-10034
▁advance	-10035
▁Bildungs	-10036
wing	-10037
▁Turkish	-10038
temporary	-10039
▁30%	-10040
▁ständig	-10041
▁Institute	-10042
▁Reaktion	-10043
ported	-10044
▁refugees	-10045
▁Schn	-10046
ätzung	-10047
got	-10048
▁seeking	-10049
Strategie	-10050
▁Sanktionen	-10051
legte	-10052
▁Skype	-10053
▁Tagung	-10054
ennis	-10055
▁contra	-10056
NL	-10057
▁Orig	-10058
stoffen	-10059
▁entitled	-10060
▁coffee	-10061
omin	-10062
▁combination	-10063
istenz	-10064
einrichtungen	-10065
erma	-10066
▁wollte	-10067
▁Unfortunately	-10068
▁firms	-10069
▁Einwanderung	-10070
ashion	-10071
▁length	-10072
ücke	-10073
▁20.	-10074
▁Because	-10075
▁Abgeordnete	-10076
▁junge	-10077
▁Gründe	-10078
▁industries	-10079
]].	-10080
ancen	-10081
▁Jean	-10082
bieten	-10083
▁legitim	-10084
▁resulting	-10085
▁Strukturfonds	-10086
▁Joh	-10087
▁100%	-10088
▁Santa	-10089
▁Reserv	-10090
kunfts	-10091
tellectual	-10092
▁•	-10093
▁sched	-10094
▁aufmerksam	-10095
▁remove	-10096
▁greatest	-10097
rot	-10098
▁meant	-10099
▁convin	-10100
▁Hard	-10101
▁liter	-10102
▁middle	-10103
Ser	-10104
sid	-10105
▁impossible	-10106
abled	-10107
▁vere	-10108
▁Hor	-10109
▁Third	-10110
beziehung	-10111
eler	-10112
▁MEP	-10113
▁Monat	-10114
▁Lesung	-10115
▁Lizenz	-10116
▁beaches	-10117
management	-10118
▁Forderungen	-10119
▁vess	-10120
▁afford	-10121
▁unan	-10122
zed	-10123
▁winter	-10124
▁Premier	-10125
▁identify	-10126
▁memory	-10127
▁italienischen	-10128
mechan	-10129
▁Kil	-10130
▁telephone	-10131
▁sagt	-10132
▁unless	-10133
▁Good	-10134
▁betonen	-10135
▁sle	-10136
▁feststellen	-10137
▁drop	-10138
▁anyone	-10139
▁Unterschiede	-10140
▁langfristige	-10141
▁Entsp	-10142
▁acts	-10143
▁Mobilität	-10144
▁possibilities	-10145
▁Maria	-10146
zubauen	-10147
▁po	-10148
▁niedrig	-10149
▁Altstadt	-10150
▁seien	-10151
wirt	-10152
reibt	-10153
▁Curr	-10154
▁hingewiesen	-10155
▁Registr	-10156
▁obstac	-10157
▁Agentur	-10158
▁religious	-10159
▁Island	-10160
▁nearby	-10161
System	-10162
▁Todes	-10163
▁drawn	-10164
▁opinions	-10165
glieder	-10166
▁Michael	-10167
▁Vill	-10168
▁rent	-10169
reitet	-10170
▁Straf	-10171
▁situations	-10172
▁translation	-10173
▁Urs	-10174
▁wichtigste	-10175
aby	-10176
esterday	-10177
▁Alliance	-10178
iegel	-10179
▁highlight	-10180
nischen	-10181
liefer	-10182
▁Contacts	-10183
ürk	-10184
▁Wechsel	-10185
▁affairs	-10186
▁participants	-10187
mel	-10188
ibli	-10189
▁labor	-10190
▁Casino	-10191
▁lernen	-10192
2/	-10193
▁Christian	-10194
▁win	-10195
▁Geist	-10196
▁diesel	-10197
▁relatively	-10198
reck	-10199
▁Hauses	-10200
▁carefully	-10201
▁4,	-10202
▁Instit	-10203
▁patent	-10204
beziehungen	-10205
TR	-10206
ario	-10207
▁Freund	-10208
▁Tourismus	-10209
▁Temp	-10210
▁einzigen	-10211
▁Strategien	-10212
▁gewün	-10213
▁Vielen	-10214
onial	-10215
▁klass	-10216
▁dedicated	-10217
▁sicherlich	-10218
sph	-10219
▁acht	-10220
▁shares	-10221
iquid	-10222
▁functioning	-10223
▁12.	-10224
▁sell	-10225
▁Webseite	-10226
▁substances	-10227
▁Nav	-10228
▁himself	-10229
▁forced	-10230
▁Stabilitäts	-10231
▁möglichen	-10232
▁Nevertheless	-10233
▁Food	-10234
▁destroy	-10235
▁Kooperation	-10236
▁norm	-10237
odurch	-10238
▁Krisen	-10239
▁USB	-10240
▁Sur	-10241
▁Stein	-10242
▁Arbeitsp	-10243
▁Teilen	-10244
▁moving	-10245
▁analy	-10246
▁Royal	-10247
▁weltweiten	-10248
▁Poker	-10249
▁founded	-10250
▁Following	-10251
▁ru	-10252
haltet	-10253
look	-10254
▁Swed	-10255
fällen	-10256
▁accur	-10257
lichem	-10258
▁imag	-10259
▁Wi	-10260
▁Top	-10261
▁Palace	-10262
ulted	-10263
bekämpfung	-10264
▁erhebliche	-10265
ansion	-10266
▁attacks	-10267
known	-10268
osite	-10269
▁Niveau	-10270
▁advertising	-10271
▁unacceptable	-10272
flug	-10273
▁remaining	-10274
▁prepare	-10275
▁recognised	-10276
▁Größe	-10277
▁qualit	-10278
▁vehicle	-10279
▁connected	-10280
▁nearly	-10281
ißen	-10282
selben	-10283
▁Obama	-10284
ingesch	-10285
▁brings	-10286
▁desire	-10287
▁unable	-10288
▁ECU	-10289
▁Elect	-10290
▁beiz	-10291
Ber	-10292
▁Eur	-10293
▁Wien	-10294
▁danach	-10295
!!	-10296
schafts	-10297
▁Secret	-10298
▁Drittländern	-10299
▁Verbesserungen	-10300
▁satellite	-10301
▁Heil	-10302
▁Lith	-10303
schaff	-10304
▁dro	-10305
▁notified	-10306
ey	-10307
uropäischen	-10308
▁amounts	-10309
emark	-10310
▁claims	-10311
▁thereby	-10312
eller	-10313
▁Teilnahme	-10314
▁sanctions	-10315
jet	-10316
▁temper	-10317
▁para	-10318
▁Beach	-10319
▁Links	-10320
TP	-10321
▁flight	-10322
▁jungen	-10323
cling	-10324
▁Meiner	-10325
▁grunds	-10326
65	-10327
▁technological	-10328
▁Rh	-10329
ilding	-10330
▁trend	-10331
▁schools	-10332
SL	-10333
▁diplomat	-10334
▁geprüft	-10335
▁Structural	-10336
▁strategies	-10337
▁Erzeugnisse	-10338
ruption	-10339
▁Company	-10340
▁erscheint	-10341
▁NI	-10342
▁verringern	-10343
zi	-10344
▁Located	-10345
▁vollständige	-10346
beauftrag	-10347
▁richtigen	-10348
▁Syn	-10349
General	-10350
▁welcomes	-10351
▁Inner	-10352
▁earth	-10353
ford	-10354
DR	-10355
ading	-10356
▁Bedürfnisse	-10357
▁Klar	-10358
▁Technik	-10359
▁wodurch	-10360
▁tut	-10361
▁2009,	-10362
▁nütz	-10363
▁follows	-10364
▁Firstly	-10365
ão	-10366
▁Meter	-10367
▁2007-20	-10368
▁monetary	-10369
▁fragen	-10370
▁Compet	-10371
da	-10372
nia	-10373
▁Drogen	-10374
▁consensus	-10375
▁convinced	-10376
Th	-10377
▁Protection	-10378
▁fühl	-10379
▁sand	-10380
▁Mik	-10381
ström	-10382
▁parallel	-10383
▁geschützt	-10384
▁zunehmend	-10385
So	-10386
▁buffet	-10387
stattung	-10388
▁2008.	-10389
▁Telekommunik	-10390
▁approximately	-10391
▁Bör	-10392
▁consistent	-10393
▁Fen	-10394
▁chosen	-10395
ählten	-10396
▁Wald	-10397
▁contributions	-10398
aker	-10399
▁kos	-10400
▁spezielle	-10401
VO	-10402
▁Option	-10403
▁neither	-10404
▁compensation	-10405
▁enhance	-10406
▁Com	-10407
urement	-10408
▁Ungleich	-10409
▁Währungs	-10410
▁freuen	-10411
▁diversity	-10412
▁customs	-10413
ooth	-10414
ochter	-10415
▁Märkten	-10416
▁awareness	-10417
ih	-10418
iking	-10419
istik	-10420
▁umfass	-10421
steht	-10422
▁Absicht	-10423
▁Universität	-10424
iot	-10425
▁reagieren	-10426
ktions	-10427
▁gender	-10428
ausschusses	-10429
worfen	-10430
▁früher	-10431
ags	-10432
▁prison	-10433
▁Nachdem	-10434
reis	-10435
▁Dän	-10436
▁determined	-10437
▁Jahrhunderts	-10438
▁fraud	-10439
▁fahren	-10440
▁article	-10441
▁{{	-10442
▁systemat	-10443
▁gesellschaft	-10444
▁reprodu	-10445
▁expression	-10446
▁Flexibilität	-10447
▁manufacturers	-10448
▁Yet	-10449
▁massive	-10450
▁Twitter	-10451
▁Custom	-10452
grenzung	-10453
▁Prov	-10454
▁sale	-10455
▁paragraph	-10456
▁architecture	-10457
hängig	-10458
▁Aktionsplan	-10459
▁Verwir	-10460
▁Despite	-10461
▁Typ	-10462
▁denken	-10463
lässlich	-10464
fare	-10465
▁Relig	-10466
▁ehrgeiz	-10467
afr	-10468
▁marg	-10469
▁shower	-10470
▁centres	-10471
▁Dol	-10472
▁PPE	-10473
▁führte	-10474
apter	-10475
dep	-10476
kurs	-10477
▁40%	-10478
▁Kranken	-10479
ishes	-10480
▁Square	-10481
▁eight	-10482
▁intention	-10483
▁cheap	-10484
▁wealth	-10485
▁beraten	-10486
▁zugleich	-10487
banken	-10488
▁Express	-10489
▁myself	-10490
wendungs	-10491
▁examples	-10492
verwalt	-10493
▁diesbe	-10494
esented	-10495
bil	-10496
▁Erwart	-10497
hel	-10498
▁assets	-10499
▁installed	-10500
hängen	-10501
äumt	-10502
▁Verhältnis	-10503
body	-10504
arr	-10505
▁NG	-10506
▁Access	-10507
▁Nahrungsmittel	-10508
▁Band	-10509
▁happened	-10510
▁dé	-10511
▁besitzt	-10512
▁keinerlei	-10513
▁Genehmigung	-10514
edr	-10515
▁kept	-10516
▁gutes	-10517
▁MrPresident	-10518
▁freie	-10519
with	-10520
▁Patent	-10521
dienstleistungen	-10522
▁geschehen	-10523
▁Mittelpunkt	-10524
▁korre	-10525
▁kleiner	-10526
▁fruit	-10527
▁tackle	-10528
▁Zahlungs	-10529
gere	-10530
▁Rund	-10531
▁gehalten	-10532
▁Partnership	-10533
Programm	-10534
ventionen	-10535
▁zugänglich	-10536
▁Eth	-10537
▁geist	-10538
▁schließen	-10539
▁taxation	-10540
▁Antworten	-10541
▁smaller	-10542
▁testing	-10543
ikal	-10544
▁distin	-10545
▁]	-10546
▁pas	-10547
▁vorrang	-10548
▁Day	-10549
▁umzusetzen	-10550
▁fit	-10551
▁Maschinen	-10552
istungs	-10553
handlungs	-10554
▁9.	-10555
▁Ban	-10556
▁exception	-10557
▁accessible	-10558
▁beseit	-10559
▁enforcement	-10560
airman	-10561
▁houses	-10562
▁Bereitstellung	-10563
▁ID	-10564
▁privile	-10565
▁Brazil	-10566
▁defend	-10567
▁hostels	-10568
▁pour	-10569
icious	-10570
▁mist	-10571
▁Energien	-10572
Mar	-10573
▁secret	-10574
▁2007.	-10575
▁vorgenommen	-10576
trägt	-10577
▁Gut	-10578
▁enth	-10579
▁ordnungs	-10580
essene	-10581
amerika	-10582
▁regelmäßig	-10583
▁au	-10584
▁Trek	-10585
▁temporary	-10586
▁Festlegung	-10587
▁unmittelbar	-10588
▁typical	-10589
▁Denmark	-10590
▁arrival	-10591
▁entertain	-10592
▁Erklärungen	-10593
▁beeinträcht	-10594
yright	-10595
▁Hall	-10596
▁Stahl	-10597
▁condemn	-10598
▁gegründet	-10599
▁tar	-10600
▁klicken	-10601
▁Verträge	-10602
▁leadership	-10603
7)	-10604
ido	-10605
führungen	-10606
▁Kurs	-10607
▁dynamic	-10608
▁Friedens	-10609
▁beob	-10610
▁Modernisierung	-10611
▁Normen	-10612
▁Gegensatz	-10613
AG	-10614
economic	-10615
▁outstanding	-10616
▁offensichtlich	-10617
▁Zielen	-10618
▁deiner	-10619
ili	-10620
vereign	-10621
▁Fitness	-10622
▁Fire	-10623
▁correspond	-10624
uters	-10625
▁sovereign	-10626
achsen	-10627
isierungs	-10628
21	-10629
▁poten	-10630
▁uneingesch	-10631
▁river	-10632
ispiele	-10633
▁75	-10634
onien	-10635
▁Dublin	-10636
▁Voraussetzung	-10637
▁absolut	-10638
▁beschleun	-10639
▁entstanden	-10640
▁physical	-10641
▁subsidiar	-10642
▁Hauptstadt	-10643
national	-10644
zneimit	-10645
▁bekräft	-10646
▁involvement	-10647
▁Haup	-10648
▁experienced	-10649
▁lau	-10650
▁assum	-10651
▁Terrasse	-10652
atever	-10653
ipping	-10654
▁talks	-10655
▁Hof	-10656
▁Militär	-10657
▁confirmed	-10658
▁Ferr	-10659
grundlage	-10660
governmental	-10661
füllung	-10662
quellen	-10663
▁elected	-10664
▁investors	-10665
▁liber	-10666
▁sofern	-10667
ikas	-10668
▁höhere	-10669
zneimittel	-10670
▁zusätzlich	-10671
▁OF	-10672
▁beinhaltet	-10673
reu	-10674
door	-10675
▁Vien	-10676
▁mode	-10677
▁betrachten	-10678
▁button	-10679
▁passengers	-10680
iam	-10681
kunden	-10682
▁surrounding	-10683
▁vulnerable	-10684
▁Hostelsclub	-10685
stoß	-10686
▁deutsche	-10687
▁weiteres	-10688
▁SP	-10689
▁Tax	-10690
▁Grunde	-10691
▁Resort	-10692
▁ongoing	-10693
▁Perspekt	-10694
▁positiven	-10695
▁Weiß	-10696
▁Vereinbarungen	-10697
▁Mö	-10698
▁eingeleitet	-10699
89	-10700
▁Link	-10701
gefähr	-10702
▁Martin	-10703
▁Konsultation	-10704
▁Swedish	-10705
oßen	-10706
▁Laufe	-10707
▁fällt	-10708
▁putting	-10709
asmus	-10710
▁schönen	-10711
▁sn	-10712
▁nav	-10713
▁steel	-10714
▁sensitive	-10715
Bahn	-10716
▁Sud	-10717
ieties	-10718
▁jederzeit	-10719
▁Kirche	-10720
▁großes	-10721
▁betrie	-10722
▁causes	-10723
▁alt	-10724
▁revolution	-10725
▁luxury	-10726
▁zusätzlichen	-10727
▁Anlage	-10728
▁Umständen	-10729
▁spaces	-10730
hrt	-10731
▁communications	-10732
▁Mount	-10733
▁Handeln	-10734
▁mandate	-10735
▁Balt	-10736
▁hören	-10737
▁Fischer	-10738
▁emphasis	-10739
▁enormous	-10740
rufen	-10741
▁Live	-10742
▁factor	-10743
▁Patienten	-10744
▁Bern	-10745
▁Männer	-10746
endung	-10747
▁befassen	-10748
▁interface	-10749
äger	-10750
▁2010.	-10751
wers	-10752
▁maintenance	-10753
▁Verfügbarkeit	-10754
odes	-10755
spartner	-10756
▁changing	-10757
▁ordnungsgem	-10758
ifest	-10759
▁Erde	-10760
▁window	-10761
▁Administr	-10762
▁terrorist	-10763
▁Kong	-10764
▁tief	-10765
opt	-10766
quar	-10767
üben	-10768
▁überein	-10769
▁Botschaft	-10770
▁>	-10771
sprach	-10772
schrift	-10773
▁zuge	-10774
▁Champ	-10775
▁Diskussionen	-10776
3/	-10777
▁primarily	-10778
29	-10779
▁Kommun	-10780
▁Educ	-10781
▁Alter	-10782
▁Reich	-10783
▁kommun	-10784
▁Ereignisse	-10785
▁Lithu	-10786
wicklung	-10787
▁komplett	-10788
▁gewiss	-10789
▁recognise	-10790
▁zone	-10791
actory	-10792
eshalb	-10793
era	-10794
▁Div	-10795
weite	-10796
SV	-10797
▁Klass	-10798
▁Immobilien	-10799
rep	-10800
▁Pact	-10801
▁disposal	-10802
isure	-10803
tragung	-10804
▁Thus	-10805
▁permit	-10806
uese	-10807
▁una	-10808
▁Argent	-10809
▁stellte	-10810
▁konkreten	-10811
▁bound	-10812
loyed	-10813
▁Gentoo	-10814
▁Que	-10815
▁Kreat	-10816
▁retain	-10817
▁erleben	-10818
▁Finnland	-10819
▁registration	-10820
jan	-10821
abwe	-10822
erman	-10823
▁Dadurch	-10824
▁conclude	-10825
ragt	-10826
▁Karten	-10827
▁spl	-10828
▁reply	-10829
▁betont	-10830
▁Zuständigkeit	-10831
▁Gebrauch	-10832
▁argument	-10833
▁slight	-10834
▁Govern	-10835
▁Provin	-10836
▁decades	-10837
▁Sektoren	-10838
▁occasion	-10839
Fi	-10840
▁machines	-10841
▁Lit	-10842
▁Korr	-10843
ermaßen	-10844
▁Realität	-10845
4)	-10846
oret	-10847
▁starken	-10848
▁vernünft	-10849
▁inflation	-10850
▁ISO	-10851
▁leb	-10852
▁stimme	-10853
▁sichern	-10854
▁Allgemeinen	-10855
▁successfully	-10856
uste	-10857
▁Bio	-10858
▁Hoffnung	-10859
▁Potenzial	-10860
▁JavaScript	-10861
▁wood	-10862
mlich	-10863
▁passed	-10864
cap	-10865
umping	-10866
▁Verständnis	-10867
▁Tiere	-10868
rance	-10869
▁Arbeitsplatz	-10870
ikte	-10871
pa	-10872
lli	-10873
apers	-10874
▁Mold	-10875
▁diseases	-10876
▁asking	-10877
▁surv	-10878
ategorie	-10879
▁Küsten	-10880
▁relaxing	-10881
▁48	-10882
▁saw	-10883
▁contained	-10884
▁delivered	-10885
ändler	-10886
▁MySQL	-10887
▁guide	-10888
imately	-10889
▁Lake	-10890
sein	-10891
▁officials	-10892
▁Behin	-10893
▁Anliegen	-10894
▁Jeder	-10895
Das	-10896
piel	-10897
kapaz	-10898
regeln	-10899
sparte	-10900
▁Migration	-10901
isory	-10902
▁Übereinkommen	-10903
▁hervorge	-10904
▁Lag	-10905
▁voc	-10906
▁türk	-10907
▁Schlaf	-10908
▁Methode	-10909
▁verstärken	-10910
▁Hist	-10911
▁gelungen	-10912
▁capt	-10913
▁Egypt	-10914
▁Those	-10915
ESS	-10916
▁Muse	-10917
▁pointed	-10918
eind	-10919
▁rul	-10920
produktion	-10921
▁extension	-10922
staatlichen	-10923
▁18.	-10924
▁spa	-10925
▁Garden	-10926
▁existence	-10927
irl	-10928
zig	-10929
ktop	-10930
ablen	-10931
kund	-10932
metho	-10933
▁largely	-10934
▁reliable	-10935
setzt	-10936
▁capable	-10937
Sta	-10938
olo	-10939
▁ye	-10940
xts	-10941
uy	-10942
▁ep	-10943
▁booking	-10944
▁Po	-10945
▁Gesetzgebung	-10946
onenten	-10947
real	-10948
▁Definition	-10949
▁presidency	-10950
▁story	-10951
pal	-10952
▁daraus	-10953
▁Sonnen	-10954
▁bildet	-10955
communic	-10956
▁beginnt	-10957
▁(1)	-10958
▁Putin	-10959
▁Ebenso	-10960
▁category	-10961
oral	-10962
▁magn	-10963
▁intellectual	-10964
▁Luf	-10965
▁stands	-10966
▁Employment	-10967
▁Jose	-10968
▁spricht	-10969
▁1993	-10970
▁thre	-10971
▁Bla	-10972
▁Süden	-10973
▁beantwor	-10974
Mittel	-10975
allery	-10976
▁2008,	-10977
ENT	-10978
▁AR	-10979
iced	-10980
unktions	-10981
▁Jahrzehn	-10982
▁complet	-10983
▁Beim	-10984
igned	-10985
gendes	-10986
▁compr	-10987
▁latter	-10988
via	-10989
▁250	-10990
▁Two	-10991
▁pure	-10992
▁Mat	-10993
▁langen	-10994
stall	-10995
▁Area	-10996
▁Exec	-10997
iensten	-10998
▁höchst	-10999
▁multiple	-11000
▁Quest	-11001
▁anerkannt	-11002
▁wiederum	-11003
▁garantiert	-11004
▁Einbeziehung	-11005
ipel	-11006
ektor	-11007
▁Aktien	-11008
▁Marken	-11009
▁Bahnhof	-11010
▁legt	-11011
Der	-11012
IDS	-11013
▁Pflicht	-11014
forschung	-11015
▁geöffnet	-11016
▁List	-11017
▁vieler	-11018
▁Pop	-11019
▁Besitz	-11020
CS	-11021
▁Mun	-11022
▁exports	-11023
▁künftige	-11024
▁song	-11025
▁jour	-11026
kontroll	-11027
▁beachten	-11028
Unter	-11029
▁Croatia	-11030
▁Delegation	-11031
ancy	-11032
▁device	-11033
▁Rob	-11034
▁Pflanzen	-11035
▁blog	-11036
▁600	-11037
▁increases	-11038
▁Kandidaten	-11039
▁courses	-11040
▁Studio	-11041
abl	-11042
▁1992	-11043
▁Roh	-11044
▁Mobile	-11045
▁definit	-11046
▁Ruhe	-11047
ausende	-11048
▁höchste	-11049
▁breach	-11050
▁journal	-11051
▁incorpor	-11052
▁entschlossen	-11053
▁hum	-11054
▁verf	-11055
related	-11056
▁ancient	-11057
gerufen	-11058
▁BM	-11059
zern	-11060
▁wesentliche	-11061
▁calcul	-11062
▁consists	-11063
omas	-11064
▁contemporary	-11065
akten	-11066
ailand	-11067
▁driving	-11068
▁Darlehen	-11069
▁banking	-11070
▁por	-11071
▁maß	-11072
▁union	-11073
▁schneller	-11074
▁Schrift	-11075
▁Adresse	-11076
▁nunmehr	-11077
▁determine	-11078
▁involve	-11079
▁identity	-11080
▁audio	-11081
▁privat	-11082
ibliothe	-11083
26	-11084
▁Kroat	-11085
eib	-11086
bauen	-11087
▁preparation	-11088
▁bedarf	-11089
▁eröffnet	-11090
▁schemes	-11091
▁öffentlich	-11092
icip	-11093
uers	-11094
effizienz	-11095
vereinbar	-11096
▁einfache	-11097
unicip	-11098
▁Verbot	-11099
▁außerord	-11100
▁erlä	-11101
▁dritten	-11102
▁manufacturing	-11103
größ	-11104
▁80%	-11105
▁Fotos	-11106
▁echte	-11107
▁unfortunately	-11108
▁natur	-11109
▁association	-11110
▁Stadtzentrum	-11111
▁wild	-11112
▁Portuguese	-11113
▁warten	-11114
igor	-11115
hörigen	-11116
▁retail	-11117
▁Hilfs	-11118
▁guaranteed	-11119
▁pill	-11120
anders	-11121
level	-11122
▁anbieten	-11123
▁Überzeug	-11124
▁ou	-11125
▁intensiv	-11126
▁Balkan	-11127
uttle	-11128
▁count	-11129
▁Polish	-11130
▁läng	-11131
▁offenen	-11132
▁Rich	-11133
▁protecting	-11134
▁Vorschlägen	-11135
▁gratul	-11136
kontrolle	-11137
▁barriers	-11138
uchten	-11139
▁underg	-11140
▁Technology	-11141
▁sav	-11142
reprene	-11143
▁imposed	-11144
▁ehemaligen	-11145
▁older	-11146
▁beabsicht	-11147
▁collective	-11148
mung	-11149
licit	-11150
▁requirement	-11151
▁Copenhagen	-11152
▁persönlich	-11153
ichteten	-11154
▁Gre	-11155
▁taxes	-11156
ziele	-11157
ás	-11158
olz	-11159
▁5,	-11160
▁Flor	-11161
▁Ordnung	-11162
▁agency	-11163
▁helped	-11164
schaffen	-11165
▁unterstütze	-11166
abling	-11167
▁destru	-11168
▁praktisch	-11169
▁directives	-11170
▁fried	-11171
▁liebe	-11172
▁youth	-11173
urm	-11174
▁Polit	-11175
▁elegan	-11176
▁square	-11177
▁effectiveness	-11178
▁CH	-11179
chst	-11180
▁merely	-11181
▁36	-11182
▁dir	-11183
▁valu	-11184
▁appar	-11185
▁grundlegenden	-11186
▁ras	-11187
▁Bill	-11188
▁lift	-11189
▁charges	-11190
raums	-11191
tehen	-11192
▁born	-11193
▁Eindruck	-11194
▁brow	-11195
▁Inseln	-11196
▁schwed	-11197
▁Ganz	-11198
▁Mission	-11199
▁Beispiele	-11200
▁previously	-11201
It	-11202
▁Hong	-11203
▁Tochter	-11204
▁Tai	-11205
▁Year	-11206
▁tried	-11207
▁Projekten	-11208
▁kl	-11209
▁noise	-11210
▁Ferienwohn	-11211
▁Katastrophen	-11212
▁@	-11213
▁13.	-11214
▁Pool	-11215
▁bars	-11216
▁divid	-11217
stehenden	-11218
▁vast	-11219
▁imports	-11220
▁proportion	-11221
▁leads	-11222
▁Gegenteil	-11223
ökonom	-11224
▁bestimmter	-11225
▁hierzu	-11226
▁Nachhalt	-11227
▁hoher	-11228
▁imper	-11229
▁sem	-11230
▁Flash	-11231
▁route	-11232
▁honourable	-11233
▁represented	-11234
▁Übern	-11235
▁Grenze	-11236
▁wishes	-11237
gebiete	-11238
▁Emissions	-11239
Chr	-11240
gro	-11241
▁Viet	-11242
▁disaster	-11243
zwungen	-11244
▁Anbieter	-11245
wegs	-11246
▁Los	-11247
▁Offen	-11248
31	-11249
▁entreprene	-11250
▁cur	-11251
▁dah	-11252
App	-11253
▁sorgfält	-11254
kommt	-11255
▁Ombudsman	-11256
▁durchschnitt	-11257
47	-11258
ickt	-11259
viel	-11260
▁Win	-11261
▁SD	-11262
▁Lim	-11263
▁reported	-11264
▁southern	-11265
eh	-11266
▁Fraktionen	-11267
▁motiv	-11268
▁nation	-11269
▁output	-11270
rohung	-11271
▁bewegen	-11272
▁Methoden	-11273
▁toler	-11274
▁Philipp	-11275
informationen	-11276
VI	-11277
▁Ath	-11278
ifies	-11279
orgnis	-11280
▁Norden	-11281
rain	-11282
▁Joint	-11283
▁inhab	-11284
antly	-11285
▁selten	-11286
▁beglück	-11287
mäßigen	-11288
▁Manager	-11289
▁Sä	-11290
▁erfre	-11291
▁Ausbau	-11292
▁stocks	-11293
▁Hamburg	-11294
fügt	-11295
▁GNU	-11296
rochen	-11297
▁Arbeitsplätzen	-11298
▁leiden	-11299
85	-11300
2010	-11301
▁Anti	-11302
▁näher	-11303
ouver	-11304
▁einzelne	-11305
▁UR	-11306
▁Nahen	-11307
berecht	-11308
▁judicial	-11309
▁speziellen	-11310
tellte	-11311
▁Law	-11312
▁guter	-11313
▁nations	-11314
fä	-11315
gung	-11316
care	-11317
athedr	-11318
▁weight	-11319
▁Landwirte	-11320
▁tie	-11321
▁empfehlen	-11322
▁Unterkunft	-11323
itarian	-11324
▁andererseits	-11325
rokrat	-11326
▁chain	-11327
▁Erasmus	-11328
▁führenden	-11329
politischen	-11330
▁minute	-11331
▁beglückwün	-11332
▁letzt	-11333
weisung	-11334
staats	-11335
▁Anstieg	-11336
▁Vermögen	-11337
otal	-11338
▁urge	-11339
▁Schwar	-11340
▁acceptable	-11341
▁underm	-11342
▁inzwischen	-11343
▁Niederlande	-11344
▁amongst	-11345
▁Merc	-11346
▁Dauer	-11347
ivalent	-11348
vol	-11349
▁Sun	-11350
▁begonnen	-11351
derte	-11352
▁Before	-11353
▁welchen	-11354
▁Meinungs	-11355
ela	-11356
▁ap	-11357
▁Kontrollen	-11358
▁unit	-11359
▁wichtiges	-11360
▁erb	-11361
lared	-11362
ny	-11363
▁seitens	-11364
▁übernommen	-11365
▁Generaldire	-11366
artet	-11367
uführen	-11368
▁Unions	-11369
▁expensive	-11370
grad	-11371
wirkung	-11372
▁finding	-11373
tran	-11374
üht	-11375
iode	-11376
▁taste	-11377
▁BSE	-11378
rechten	-11379
▁Revolution	-11380
▁kaufen	-11381
▁erlassen	-11382
▁Betreiber	-11383
▁appointed	-11384
▁Gl	-11385
▁2006.	-11386
▁estate	-11387
teilungen	-11388
▁palästinens	-11389
▁Abfall	-11390
▁default	-11391
regelung	-11392
vely	-11393
▁geschieht	-11394
▁statistics	-11395
▁5-	-11396
▁Wür	-11397
▁Fel	-11398
▁teilen	-11399
bereichen	-11400
▁traditionellen	-11401
▁15.	-11402
▁sogen	-11403
vertre	-11404
station	-11405
▁complain	-11406
▁combating	-11407
▁id	-11408
itals	-11409
▁nachzu	-11410
▁Wash	-11411
päck	-11412
zahlung	-11413
▁gewählt	-11414
▁Vorgehen	-11415
▁Arzneimittel	-11416
▁optimal	-11417
AF	-11418
gesundheit	-11419
kor	-11420
▁Use	-11421
▁Blog	-11422
▁Rem	-11423
attung	-11424
▁Künstler	-11425
▁incomp	-11426
▁Hochschul	-11427
ativer	-11428
▁Vienna	-11429
ulierung	-11430
tele	-11431
▁resolve	-11432
gigen	-11433
eting	-11434
▁Gewinn	-11435
cor	-11436
▁USD	-11437
▁Beweis	-11438
programme	-11439
▁competence	-11440
handelt	-11441
ältigen	-11442
▁explain	-11443
▁Kombination	-11444
▁Viertel	-11445
ungsmaßnahmen	-11446
27	-11447
▁entered	-11448
▁Armen	-11449
▁versions	-11450
▁vielmehr	-11451
▁abroad	-11452
▁niemand	-11453
▁Ros	-11454
ergie	-11455
▁Wesent	-11456
icon	-11457
▁verlieren	-11458
fa	-11459
▁Sov	-11460
▁visa	-11461
▁Network	-11462
kommissar	-11463
▁Gesetze	-11464
ORD	-11465
▁Kohäsion	-11466
ahnen	-11467
▁Doha	-11468
▁sprach	-11469
▁Gründung	-11470
▁Gespräche	-11471
▁vollkommen	-11472
▁Flä	-11473
ifellos	-11474
▁vorange	-11475
▁passenger	-11476
▁Sony	-11477
▁2007,	-11478
▁veget	-11479
ffend	-11480
▁attend	-11481
▁threaten	-11482
ede	-11483
dessen	-11484
▁Partnern	-11485
▁Morgen	-11486
▁Faktoren	-11487
ueber	-11488
▁Fert	-11489
▁zentralen	-11490
anger	-11491
▁Class	-11492
▁Willen	-11493
▁attemp	-11494
oot	-11495
ère	-11496
▁earn	-11497
iring	-11498
▁spät	-11499
▁Sprach	-11500
▁Export	-11501
▁angeht	-11502
▁repeated	-11503
▁strategischen	-11504
ifor	-11505
▁laut	-11506
▁25%	-11507
▁sage	-11508
▁Protocol	-11509
▁totally	-11510
▁expectations	-11511
pft	-11512
▁pharm	-11513
▁representative	-11514
▁shift	-11515
▁Zimmern	-11516
▁transform	-11517
én	-11518
▁fighting	-11519
krit	-11520
▁Pic	-11521
▁Disc	-11522
▁Zusatz	-11523
▁Education	-11524
▁Late	-11525
▁whilst	-11526
ombin	-11527
rote	-11528
ordan	-11529
ährung	-11530
roc	-11531
▁updated	-11532
▁philosoph	-11533
▁Plaza	-11534
▁title	-11535
fuhren	-11536
▁kurzem	-11537
▁Enjoy	-11538
▁Fremden	-11539
▁sinnvoll	-11540
▁Fü	-11541
▁120	-11542
▁Zusch	-11543
▁someone	-11544
▁abhängig	-11545
herent	-11546
▁expertise	-11547
▁bezieht	-11548
▁Executive	-11549
▁error	-11550
▁richten	-11551
▁Beiträge	-11552
▁suffering	-11553
▁verwende	-11554
▁write	-11555
▁mittels	-11556
usal	-11557
▁providers	-11558
▁Arm	-11559
▁complement	-11560
atures	-11561
▁inquir	-11562
▁quarter	-11563
▁genü	-11564
initiative	-11565
▁beschränkt	-11566
▁garantieren	-11567
▁Krankheiten	-11568
▁17.	-11569
▁49	-11570
ESC	-11571
▁beschrieben	-11572
28	-11573
▁weg	-11574
▁gather	-11575
ierend	-11576
▁EWSA	-11577
▁heavy	-11578
behandlung	-11579
hlt	-11580
▁lebens	-11581
spezif	-11582
▁Westen	-11583
▁Dorf	-11584
▁Eltern	-11585
▁verteid	-11586
otte	-11587
▁190	-11588
Richtlinie	-11589
lebt	-11590
▁River	-11591
▁Tabak	-11592
iovis	-11593
▁Vision	-11594
▁riesigen	-11595
▁truth	-11596
▁hospital	-11597
▁diskutiert	-11598
OP	-11599
▁verwir	-11600
▁surface	-11601
▁Fu	-11602
▁School	-11603
▁Zustand	-11604
▁rejected	-11605
holm	-11606
ukt	-11607
▁pun	-11608
▁Kopf	-11609
▁Anton	-11610
▁surrounded	-11611
▁Kor	-11612
ektiv	-11613
well	-11614
▁prosper	-11615
▁holidays	-11616
▁flow	-11617
▁läuft	-11618
▁exhibition	-11619
▁angemessene	-11620
▁demokratische	-11621
▁begann	-11622
▁respekt	-11623
bsites	-11624
▁millions	-11625
▁unterschiedlich	-11626
▁hoff	-11627
igible	-11628
iox	-11629
▁Represent	-11630
▁Tisch	-11631
▁Brasil	-11632
wachs	-11633
▁terr	-11634
▁romant	-11635
▁yesterday	-11636
▁1980	-11637
▁photos	-11638
▁turned	-11639
▁privacy	-11640
▁subsidies	-11641
auso	-11642
▁password	-11643
▁veran	-11644
▁Gedanken	-11645
-/	-11646
eds	-11647
▁kommer	-11648
▁rightly	-11649
nier	-11650
▁treated	-11651
▁corner	-11652
▁Einkaufs	-11653
▁Set	-11654
▁dealt	-11655
▁welcomed	-11656
▁Ca	-11657
▁liability	-11658
▁2006,	-11659
▁Milch	-11660
▁instru	-11661
▁heutige	-11662
▁ST	-11663
itale	-11664
lege	-11665
iform	-11666
▁Zuge	-11667
▁Muslim	-11668
▁mögliche	-11669
▁angep	-11670
trieben	-11671
akei	-11672
▁Regulierungs	-11673
▁Pie	-11674
▁Schm	-11675
▁grundlegende	-11676
▁fand	-11677
▁Old	-11678
▁holding	-11679
▁stakeholders	-11680
standards	-11681
▁Dänemark	-11682
▁perfectly	-11683
öger	-11684
gestellten	-11685
▁stronger	-11686
▁constitute	-11687
UM	-11688
enswert	-11689
▁derartige	-11690
▁ausgesetzt	-11691
ér	-11692
▁bekämpfen	-11693
icer	-11694
▁opposite	-11695
bett	-11696
▁noted	-11697
▁Signal	-11698
▁welfare	-11699
▁Mach	-11700
▁faced	-11701
ipul	-11702
teen	-11703
oler	-11704
▁charming	-11705
▁globalisation	-11706
▁race	-11707
▁basiert	-11708
1-	-11709
▁Player	-11710
▁copy	-11711
▁entdeck	-11712
▁verlangen	-11713
lles	-11714
ügel	-11715
▁Niger	-11716
▁damals	-11717
▁vorgeschlagene	-11718
▁Zuf	-11719
▁organiz	-11720
▁emphasise	-11721
▁politicians	-11722
▁Mem	-11723
schefs	-11724
▁Cooperation	-11725
▁Os	-11726
▁decre	-11727
▁Englisch	-11728
▁Apartment	-11729
▁residence	-11730
▁Architektur	-11731
fest	-11732
▁westlichen	-11733
ossen	-11734
▁Gaza	-11735
▁rapidly	-11736
BS	-11737
stät	-11738
▁schn	-11739
klusive	-11740
▁Betrag	-11741
▁Einstellung	-11742
lications	-11743
▁Cam	-11744
▁vorbe	-11745
▁laufen	-11746
▁beträgt	-11747
▁Messe	-11748
oles	-11749
▁engag	-11750
▁geeig	-11751
▁subst	-11752
▁politisch	-11753
▁respective	-11754
▁Jos	-11755
▁Gefühl	-11756
▁Fahrzeug	-11757
▁IV	-11758
▁af	-11759
▁Rub	-11760
▁carbon	-11761
▁extreme	-11762
▁marked	-11763
▁Beteiligten	-11764
rant	-11765
ameras	-11766
▁Kopenhagen	-11767
▁Unterschied	-11768
wachsen	-11769
▁delegation	-11770
▁(5	-11771
▁Sl	-11772
▁neun	-11773
ließt	-11774
▁weist	-11775
owned	-11776
▁Feld	-11777
▁switch	-11778
▁discussing	-11779
▁furnished	-11780
▁Veranstaltungen	-11781
▁sod	-11782
estr	-11783
▁keines	-11784
▁schöne	-11785
▁Vietnam	-11786
▁focused	-11787
▁reservation	-11788
▁Legisl	-11789
▁lokale	-11790
KT	-11791
▁60%	-11792
▁golf	-11793
▁loans	-11794
service	-11795
▁Canada	-11796
▁Britain	-11797
▁artists	-11798
▁Dafür	-11799
▁Satell	-11800
▁1000	-11801
▁volunt	-11802
▁Charta	-11803
eitigung	-11804
sprachen	-11805
▁Verbreitung	-11806
▁ermut	-11807
▁EF	-11808
▁kulturelle	-11809
uption	-11810
zellen	-11811
▁Treib	-11812
▁beschäftigt	-11813
▁trafficking	-11814
▁16.	-11815
▁inclusion	-11816
rüstung	-11817
▁funktionieren	-11818
▁Gewährleistung	-11819
▁Sens	-11820
▁Ziels	-11821
▁recommended	-11822
aste	-11823
▁Kaff	-11824
▁Kontext	-11825
▁früheren	-11826
▁Palästinens	-11827
▁Wün	-11828
vertrag	-11829
▁Übergangs	-11830
▁Franz	-11831
▁Anschluss	-11832
durch	-11833
wertet	-11834
klichung	-11835
▁Balkans	-11836
▁gegebenen	-11837
▁explan	-11838
").	-11839
▁Schön	-11840
▁impose	-11841
▁unent	-11842
▁behandeln	-11843
▁Vorschlags	-11844
▁tatsäch	-11845
▁fashion	-11846
▁manchmal	-11847
schmutzung	-11848
ümm	-11849
▁bon	-11850
▁mac	-11851
igence	-11852
▁surpr	-11853
▁Ret	-11854
▁reveal	-11855
▁deter	-11856
▁bestehende	-11857
▁Erwartungen	-11858
▁amt	-11859
▁newly	-11860
▁Massen	-11861
uing	-11862
schäd	-11863
▁books	-11864
▁3%	-11865
▁Washington	-11866
▁beteiligen	-11867
iga	-11868
▁Road	-11869
▁constructive	-11870
table	-11871
▁encouraging	-11872
▁Agriculture	-11873
enien	-11874
▁schlecht	-11875
▁obviously	-11876
▁akzeptiert	-11877
gemeinschaft	-11878
reb	-11879
▁bureau	-11880
asen	-11881
flüge	-11882
▁Ohne	-11883
ESSE	-11884
▁Expl	-11885
▁Alban	-11886
▁moved	-11887
marquis	-11888
uden	-11889
▁natürlichen	-11890
roes	-11891
▁judgment	-11892
▁Abschnitt	-11893
▁mitge	-11894
▁named	-11895
▁angesehen	-11896
▁MS	-11897
▁store	-11898
▁Konsens	-11899
▁keeping	-11900
werts	-11901
führte	-11902
▁trial	-11903
▁Know	-11904
▁Rent	-11905
▁catch	-11906
▁gespe	-11907
▁exclus	-11908
▁Consumer	-11909
▁helps	-11910
mens	-11911
▁Dokumente	-11912
oples	-11913
▁Robert	-11914
place	-11915
▁blue	-11916
▁Diff	-11917
▁define	-11918
▁intend	-11919
▁entwickelten	-11920
iser	-11921
▁abgele	-11922
▁einver	-11923
meister	-11924
▁reichen	-11925
67	-11926
fangen	-11927
igsten	-11928
▁Andre	-11929
▁Gesellschaften	-11930
straße	-11931
▁vorzu	-11932
▁schwierigen	-11933
water	-11934
▁rock	-11935
▁Amerika	-11936
▁sustainability	-11937
▁lose	-11938
▁direkte	-11939
▁leisure	-11940
▁excessive	-11941
▁Mitglieds	-11942
▁Stability	-11943
▁Datenbank	-11944
▁Strukturen	-11945
▁Dort	-11946
▁Spiele	-11947
▁Dra	-11948
▁spok	-11949
▁exists	-11950
▁Details	-11951
▁Adv	-11952
ugnisse	-11953
▁courts	-11954
▁detaill	-11955
▁Lö	-11956
pfen	-11957
▁Autor	-11958
▁horizont	-11959
▁Hohen	-11960
▁strugg	-11961
▁emerging	-11962
▁durchzuführen	-11963
▁mountains	-11964
▁Risik	-11965
▁Chamber	-11966
▁wunderschö	-11967
zard	-11968
▁maintained	-11969
izza	-11970
▁patients	-11971
▁berühmten	-11972
▁constantly	-11973
▁glass	-11974
▁höheren	-11975
▁vorgesehenen	-11976
▁Given	-11977
gä	-11978
▁Amt	-11979
▁verlangt	-11980
not	-11981
ilfe	-11982
austausch	-11983
▁Verwirklichung	-11984
▁unanim	-11985
▁Insbesondere	-11986
▁Gemeinschaften	-11987
▁OS	-11988
gebracht	-11989
▁debates	-11990
▁Glas	-11991
▁Fluss	-11992
fertigt	-11993
▁meters	-11994
▁mail	-11995
▁musste	-11996
8/	-11997
▁aufzunehmen	-11998
igens	-11999
▁kurzfrist	-12000
▁mm	-12001
rowser	-12002
heber	-12003
▁Brenn	-12004
▁weshalb	-12005
▁exceptional	-12006
▁decis	-12007
▁Anlass	-12008
▁Fundamental	-12009
nes	-12010
folio	-12011
▁Wähl	-12012
▁illustr	-12013
▁rechtlichen	-12014
erring	-12015
ichtbar	-12016
▁conducted	-12017
bart	-12018
ipe	-12019
▁Schäden	-12020
▁absence	-12021
▁Harmonisierung	-12022
▁Untersuchungen	-12023
code	-12024
▁Alternative	-12025
örung	-12026
95	-12027
▁Versch	-12028
öss	-12029
▁nine	-12030
▁ideale	-12031
▁recommendation	-12032
oram	-12033
▁Tit	-12034
▁figure	-12035
▁Chancen	-12036
▁bislang	-12037
▁freiwill	-12038
▁waiting	-12039
conf	-12040
reds	-12041
▁Ander	-12042
▁Interess	-12043
▁balcon	-12044
glichkeit	-12045
▁Praktiken	-12046
▁Verbindungen	-12047
oni	-12048
▁meat	-12049
▁thor	-12050
▁Erwä	-12051
▁meist	-12052
entwurf	-12053
▁Wander	-12054
▁Schü	-12055
▁beauty	-12056
wirkt	-12057
▁input	-12058
▁irgende	-12059
▁adap	-12060
▁Puert	-12061
▁toba	-12062
▁37	-12063
▁Four	-12064
▁vielfält	-12065
▁shape	-12066
▁fed	-12067
▁Touristen	-12068
▁chinesischen	-12069
▁elektronische	-12070
▁qualified	-12071
rest	-12072
▁angewand	-12073
▁wirksame	-12074
▁überzeugen	-12075
▁bran	-12076
▁Fähigkeiten	-12077
▁McC	-12078
▁favor	-12079
▁Product	-12080
▁examine	-12081
▁Urspr	-12082
▁ta	-12083
▁öffnen	-12084
zahlungen	-12085
▁Freizeit	-12086
schte	-12087
▁abol	-12088
▁coal	-12089
▁verwe	-12090
▁obtained	-12091
▁Zahlungen	-12092
nd	-12093
▁authent	-12094
▁categories	-12095
neter	-12096
▁Asien	-12097
▁Tarif	-12098
zentren	-12099
▁configur	-12100
TC	-12101
▁qualifiz	-12102
ärkt	-12103
macht	-12104
▁supplies	-12105
▁tests	-12106
▁arms	-12107
▁felt	-12108
▁zuverläss	-12109
▁hit	-12110
ziellen	-12111
▁nar	-12112
anied	-12113
▁Krie	-12114
▁Church	-12115
▁Canon	-12116
▁plug	-12117
mäßige	-12118
▁tobacco	-12119
▁transactions	-12120
▁Sad	-12121
▁drugs	-12122
▁dritte	-12123
▁Arbeitgeber	-12124
▁transatlant	-12125
▁Their	-12126
▁Tibet	-12127
▁blood	-12128
▁nötig	-12129
▁estimated	-12130
▁vorzulegen	-12131
▁persönliche	-12132
▁2005,	-12133
ischung	-12134
▁universal	-12135
yan	-12136
▁Water	-12137
▁weitgehend	-12138
hi	-12139
▁behavi	-12140
▁RE	-12141
▁Sound	-12142
▁Einheit	-12143
▁Japanese	-12144
▁Einwohner	-12145
prozess	-12146
ränkung	-12147
▁Schulen	-12148
▁Slovenia	-12149
ès	-12150
▁MEPs	-12151
▁Klimaanlage	-12152
▁Heiz	-12153
▁Landschaft	-12154
▁Description	-12155
▁mel	-12156
▁kost	-12157
▁aviation	-12158
▁durchführen	-12159
Spe	-12160
▁settlement	-12161
▁minority	-12162
▁loan	-12163
▁micro	-12164
▁religi	-12165
▁flights	-12166
▁österreich	-12167
▁Ziff	-12168
▁jemand	-12169
▁depends	-12170
▁Autob	-12171
▁Gerichte	-12172
▁Veranstaltung	-12173
▁UNO	-12174
▁Authority	-12175
west	-12176
▁Mexico	-12177
▁Update	-12178
▁gezogen	-12179
▁kompliz	-12180
▁Vereinigte	-12181
▁Rou	-12182
▁spot	-12183
▁Wohlstand	-12184
▁colleague	-12185
obe	-12186
▁View	-12187
jährige	-12188
▁survey	-12189
erin	-12190
▁Trag	-12191
▁volume	-12192
▁destination	-12193
▁Sein	-12194
▁streng	-12195
▁Holl	-12196
▁Like	-12197
▁Präs	-12198
▁diverse	-12199
▁procurement	-12200
▁Agrarpolitik	-12201
▁Sing	-12202
▁widely	-12203
▁leaving	-12204
▁continent	-12205
erry	-12206
quote	-12207
invest	-12208
▁runs	-12209
cons	-12210
▁plen	-12211
▁zählt	-12212
▁Automobil	-12213
▁demonstrate	-12214
▁Ref	-12215
okument	-12216
▁Project	-12217
zusammen	-12218
▁Lu	-12219
wood	-12220
▁Kas	-12221
▁updates	-12222
▁experiences	-12223
▁Baltic	-12224
▁portug	-12225
▁laufenden	-12226
vey	-12227
▁außen	-12228
▁derart	-12229
▁Städten	-12230
▁Bang	-12231
▁onto	-12232
▁doub	-12233
elie	-12234
▁spezifischen	-12235
bereitet	-12236
uage	-12237
ernel	-12238
▁ultimately	-12239
junkt	-12240
rechn	-12241
▁Übergang	-12242
23	-12243
onymous	-12244
▁effektiv	-12245
▁erhältlich	-12246
waffen	-12247
▁angest	-12248
▁invited	-12249
▁allocated	-12250
▁conflicts	-12251
▁einheitlichen	-12252
▁getr	-12253
▁vous	-12254
▁remote	-12255
▁Marktes	-12256
▁heritage	-12257
lieben	-12258
▁Rechtsstaat	-12259
holen	-12260
▁SO	-12261
▁Ul	-12262
▁ursprünglichen	-12263
ôtel	-12264
▁lake	-12265
▁abgesch	-12266
▁höchsten	-12267
▁gewisse	-12268
▁valuable	-12269
▁disch	-12270
▁involves	-12271
▁Niederlanden	-12272
▁adj	-12273
▁kinds	-12274
▁bewähr	-12275
freie	-12276
theit	-12277
▁sights	-12278
▁Lithuania	-12279
▁Verbrechen	-12280
▁Vir	-12281
▁rank	-12282
▁recip	-12283
▁opposed	-12284
▁looks	-12285
▁beruht	-12286
▁Bevölkerungs	-12287
AB	-12288
▁Subsid	-12289
▁serves	-12290
▁mittler	-12291
▁Gegenstand	-12292
▁equally	-12293
▁Nachrichten	-12294
▁·	-12295
▁({{	-12296
seite	-12297
zeichnis	-12298
▁competent	-12299
riminalität	-12300
herr	-12301
▁Ess	-12302
enturen	-12303
▁entscheidend	-12304
▁maintaining	-12305
uries	-12306
▁neuesten	-12307
essions	-12308
▁Papier	-12309
▁Erholung	-12310
▁Tatsächlich	-12311
▁dict	-12312
▁resolved	-12313
▁verändert	-12314
▁friend	-12315
▁hostel	-12316
▁HIV	-12317
▁zustimmen	-12318
▁ausgerichtet	-12319
iest	-12320
▁berecht	-12321
pression	-12322
▁Komment	-12323
▁stations	-12324
▁Wil	-12325
▁removed	-12326
iern	-12327
▁Mir	-12328
▁ther	-12329
▁Cre	-12330
▁nahm	-12331
liers	-12332
▁Beam	-12333
▁Empf	-12334
▁herzlich	-12335
urd	-12336
incl	-12337
ureich	-12338
▁trifft	-12339
▁Polizei	-12340
▁Vereinfach	-12341
atalog	-12342
▁Anwendungs	-12343
▁Graf	-12344
▁WLAN	-12345
▁units	-12346
▁thorough	-12347
▁hergestellt	-12348
▁Stunde	-12349
▁bemüht	-12350
▁nahezu	-12351
▁Formular	-12352
▁nochmals	-12353
▁uncertain	-12354
▁Page	-12355
▁George	-12356
▁Eurozone	-12357
▁drivers	-12358
▁advantages	-12359
aces	-12360
▁14.	-12361
▁lock	-12362
▁Fernseh	-12363
▁5%	-12364
▁productivity	-12365
kehren	-12366
▁Staff	-12367
▁streets	-12368
▁Thanks	-12369
▁Instead	-12370
MA	-12371
▁GB	-12372
▁Vom	-12373
▁gelegt	-12374
▁landscape	-12375
wth	-12376
▁Valle	-12377
▁battle	-12378
▁stattf	-12379
▁discovered	-12380
ées	-12381
center	-12382
technik	-12383
▁reicht	-12384
uens	-12385
Über	-12386
▁1991	-12387
▁spring	-12388
▁außergewöhn	-12389
100	-12390
▁geplan	-12391
▁Wahrheit	-12392
ky	-12393
andt	-12394
▁leistungs	-12395
▁Küste	-12396
ACH	-12397
systeme	-12398
▁inhabit	-12399
▁peoples	-12400
▁fantastic	-12401
läuft	-12402
▁User	-12403
deb	-12404
▁Kabel	-12405
▁Europol	-12406
▁declared	-12407
▁joined	-12408
erechnet	-12409
▁verändern	-12410
lings	-12411
▁glad	-12412
▁anhand	-12413
fried	-12414
▁declaration	-12415
what	-12416
ößen	-12417
▁swe	-12418
berge	-12419
▁sugar	-12420
▁licens	-12421
car	-12422
td	-12423
legungen	-12424
▁Ren	-12425
▁engl	-12426
ergeb	-12427
inational	-12428
Fl	-12429
▁Next	-12430
etzten	-12431
sprüche	-12432
▁prev	-12433
▁Freiheiten	-12434
▁Earth	-12435
▁Suite	-12436
▁websites	-12437
▁oblige	-12438
funk	-12439
▁geziel	-12440
▁Kategorie	-12441
▁verschiedener	-12442
▁band	-12443
▁labe	-12444
▁advoc	-12445
▁Farben	-12446
▁verbind	-12447
▁warn	-12448
▁grand	-12449
▁danger	-12450
▁umgeben	-12451
▁menschlichen	-12452
▁elektronischen	-12453
▁willkommen	-12454
9)	-12455
▁Mü	-12456
▁Pay	-12457
▁flood	-12458
grammen	-12459
▁Slovakia	-12460
9/	-12461
▁plenary	-12462
▁installiert	-12463
▁Nachhaltigkeit	-12464
▁wait	-12465
ozi	-12466
chron	-12467
▁hängt	-12468
▁colour	-12469
▁Akteure	-12470
▁Studenten	-12471
▁milk	-12472
▁Bucht	-12473
▁liefern	-12474
▁Einwander	-12475
▁Gefahren	-12476
▁Speicher	-12477
trans	-12478
niveau	-12479
scheidet	-12480
▁Society	-12481
▁Secretary	-12482
nik	-12483
▁applying	-12484
▁Desk	-12485
▁controll	-12486
▁2007-2013	-12487
▁minorities	-12488
▁gewalt	-12489
▁breite	-12490
achter	-12491
▁eye	-12492
werks	-12493
▁Publik	-12494
▁commun	-12495
▁contrast	-12496
andon	-12497
ählte	-12498
▁Box	-12499
▁Geschäfte	-12500
▁Programmen	-12501
▁whatever	-12502
▁Neue	-12503
onomie	-12504
▁Franc	-12505
▁Fenster	-12506
▁Abkommens	-12507
▁Beseitigung	-12508
▁historische	-12509
spf	-12510
▁alter	-12511
▁relie	-12512
▁AKP	-12513
▁flag	-12514
▁Bewegung	-12515
▁Optionen	-12516
▁portugies	-12517
uchte	-12518
▁Kroatien	-12519
▁Monetary	-12520
▁untersucht	-12521
▁Clear	-12522
new	-12523
▁Stoffe	-12524
instrument	-12525
▁respected	-12526
▁Az	-12527
▁Ga	-12528
usted	-12529
poration	-12530
▁verständ	-12531
▁ausgesprochen	-12532
▁einerseits	-12533
gut	-12534
adow	-12535
▁Güter	-12536
▁obstacles	-12537
▁messages	-12538
▁Stockholm	-12539
▁investieren	-12540
▁Time	-12541
▁Rules	-12542
wechsel	-12543
▁Wild	-12544
weiten	-12545
▁Ausmaß	-12546
▁treaty	-12547
inos	-12548
▁Reduz	-12549
▁adopting	-12550
▁Marketing	-12551
▁aufnehmen	-12552
▁DG	-12553
▁rot	-12554
lesen	-12555
schten	-12556
apest	-12557
▁bedeuten	-12558
▁beigetragen	-12559
pg	-12560
▁Chinas	-12561
▁Kommunikations	-12562
▁irre	-12563
▁genannte	-12564
▁verursacht	-12565
ittees	-12566
▁komplet	-12567
▁channels	-12568
bleme	-12569
▁rare	-12570
▁Civil	-12571
▁pursue	-12572
itra	-12573
▁Straß	-12574
▁browser	-12575
▁Anw	-12576
▁prove	-12577
▁Master	-12578
▁griechischen	-12579
▁pattern	-12580
▁Vertretern	-12581
▁expansion	-12582
looking	-12583
▁2-	-12584
▁flat	-12585
bahnhof	-12586
▁Mut	-12587
▁Diam	-12588
▁push	-12589
▁Gepäck	-12590
ältigung	-12591
▁öffentlicher	-12592
etzte	-12593
▁Louis	-12594
▁unfair	-12595
▁Through	-12596
▁auftreten	-12597
▁behaviour	-12598
▁immigrants	-12599
wid	-12600
bildungs	-12601
inations	-12602
▁festgelegten	-12603
▁Geräte	-12604
,00	-12605
kur	-12606
▁Israeli	-12607
▁Führungs	-12608
▁Garantie	-12609
▁illegalen	-12610
▁competitors	-12611
aks	-12612
stud	-12613
▁citizen	-12614
▁Schule	-12615
▁corruption	-12616
▁Schne	-12617
chnologie	-12618
▁faster	-12619
▁zeich	-12620
produkte	-12621
▁Bedrohung	-12622
▁erweitert	-12623
cean	-12624
▁unzureich	-12625
far	-12626
ror	-12627
grenze	-12628
▁Festival	-12629
▁Mas	-12630
▁Space	-12631
schreiben	-12632
Rooms	-12633
▁falsch	-12634
iversity	-12635
▁gewonnen	-12636
▁Aktual	-12637
▁Growth	-12638
▁Übereinstimmung	-12639
▁cash	-12640
modell	-12641
▁solve	-12642
▁einbezogen	-12643
Um	-12644
life	-12645
▁Angel	-12646
▁ethnic	-12647
▁2005.	-12648
▁speakers	-12649
▁career	-12650
▁Arme	-12651
▁{	-12652
orter	-12653
▁Northern	-12654
▁Slowakei	-12655
▁geplanten	-12656
▁connections	-12657
▁Š	-12658
▁entscheidender	-12659
Vers	-12660
orien	-12661
entions	-12662
techn	-12663
▁hilft	-12664
▁entscheidende	-12665
▁sichergestellt	-12666
vant	-12667
▁Umfeld	-12668
▁Schuld	-12669
▁EP	-12670
▁2000,	-12671
▁dans	-12672
gegeben	-12673
▁ignor	-12674
▁happens	-12675
▁contents	-12676
▁multilateral	-12677
▁proposing	-12678
▁ports	-12679
▁sozialer	-12680
▁suppliers	-12681
▁verhindert	-12682
tein	-12683
▁appoint	-12684
▁einschlä	-12685
▁eingehalten	-12686
ukture	-12687
▁Überzeugung	-12688
▁Regierungschefs	-12689
aret	-12690
zonen	-12691
▁Reisen	-12692
▁covering	-12693
▁master	-12694
▁definiert	-12695
▁Durchsetzung	-12696
fined	-12697
▁Angst	-12698
▁kombin	-12699
▁creates	-12700
irk	-12701
ammer	-12702
ferenzen	-12703
68	-12704
▁sla	-12705
hop	-12706
▁stimmt	-12707
▁suite	-12708
▁accompanied	-12709
Intern	-12710
▁birth	-12711
▁print	-12712
enter	-12713
kohol	-12714
Tra	-12715
äume	-12716
▁Zwei	-12717
sprech	-12718
▁2004,	-12719
▁sexual	-12720
mittag	-12721
ziplin	-12722
▁niederländ	-12723
gänge	-12724
udi	-12725
▁letztlich	-12726
▁Nachbarschaft	-12727
▁Sob	-12728
hältn	-12729
isses	-12730
▁Mangel	-12731
urteilung	-12732
▁voranz	-12733
▁Millenn	-12734
sprogramme	-12735
tung	-12736
▁parad	-12737
▁anstatt	-12738
▁schafft	-12739
▁Wird	-12740
▁Staates	-12741
▁pleasure	-12742
▁Flüchtlinge	-12743
iana	-12744
▁trop	-12745
minute	-12746
▁israel	-12747
▁notably	-12748
▁Aufsichts	-12749
▁vorhandenen	-12750
▁presentation	-12751
▁gap	-12752
/2000	-12753
terung	-12754
▁Beschlüsse	-12755
▁Ausgleich	-12756
▁(2)	-12757
▁dim	-12758
▁Preisen	-12759
▁Subsidiar	-12760
▁abgelehnt	-12761
▁zweifellos	-12762
stream	-12763
züge	-12764
▁Pläne	-12765
▁geboten	-12766
▁Freunde	-12767
gie	-12768
▁DE	-12769
kette	-12770
▁Männern	-12771
▁impressive	-12772
sieht	-12773
▁duties	-12774
▁Alli	-12775
▁phen	-12776
Gruppe	-12777
▁Apple	-12778
▁knapp	-12779
▁Original	-12780
▁undertaken	-12781
▁Rechnungshof	-12782
Lin	-12783
märkten	-12784
▁channel	-12785
▁Rock	-12786
▁handling	-12787
▁harmonisation	-12788
oli	-12789
hlen	-12790
▁2004.	-12791
fähigen	-12792
▁Anhang	-12793
▁Planung	-12794
▁proud	-12795
▁Galile	-12796
▁abziel	-12797
▁municip	-12798
▁Einkommen	-12799
▁audiovis	-12800
▁LateRooms	-12801
lause	-12802
▁Ep	-12803
▁niemals	-12804
▁minister	-12805
▁resource	-12806
▁Fisheries	-12807
äufer	-12808
▁string	-12809
▁prosperity	-12810
▁TO	-12811
▁Proced	-12812
▁airlines	-12813
grunde	-12814
▁intensive	-12815
▁bemühen	-12816
▁demonstrated	-12817
-10	-12818
rum	-12819
eben	-12820
GB	-12821
▁Dass	-12822
▁starten	-12823
▁preparing	-12824
kop	-12825
▁Führer	-12826
▁awarded	-12827
▁criticism	-12828
▁entertainment	-12829
ady	-12830
ktors	-12831
▁facility	-12832
▁stylish	-12833
▁ausgezeichnete	-12834
reuung	-12835
▁remark	-12836
▁Exchange	-12837
▁overcome	-12838
▁rational	-12839
▁38	-12840
▁besitzen	-12841
▁controlled	-12842
▁EESC	-12843
iziente	-12844
▁Gesicht	-12845
▁Standort	-12846
▁articles	-12847
bek	-12848
werben	-12849
▁intends	-12850
▁engineering	-12851
inals	-12852
▁vessels	-12853
▁bekannten	-12854
▁Vielleicht	-12855
▁hervorragende	-12856
vy	-12857
▁Stück	-12858
▁genauso	-12859
▁addresses	-12860
▁Resolution	-12861
▁dinner	-12862
iva	-12863
acher	-12864
formance	-12865
▁containing	-12866
raf	-12867
teuerung	-12868
▁annehmen	-12869
▁parliaments	-12870
▁trib	-12871
▁attitude	-12872
▁afr	-12873
▁wall	-12874
▁actively	-12875
örd	-12876
▁Ltd	-12877
▁Var	-12878
icing	-12879
▁explore	-12880
▁hundreds	-12881
▁regularly	-12882
bestimmungen	-12883
▁Dynam	-12884
▁Gener	-12885
ügigkeit	-12886
▁Emissionen	-12887
▁lov	-12888
ries	-12889
▁französische	-12890
▁GU	-12891
▁geä	-12892
Produ	-12893
▁Hans	-12894
▁autonom	-12895
▁COM	-12896
▁load	-12897
ultural	-12898
▁Regime	-12899
▁driver	-12900
▁Add	-12901
Qu	-12902
▁Ladies	-12903
▁eigenes	-12904
erechtigkeit	-12905
▁Übr	-12906
Christ	-12907
▁knows	-12908
▁returned	-12909
▁Gestaltung	-12910
▁gült	-12911
▁Freude	-12912
▁ruhigen	-12913
▁Binnenmarktes	-12914
ening	-12915
▁cook	-12916
inuier	-12917
▁2003,	-12918
▁worse	-12919
▁Belgian	-12920
▁Luftfahrt	-12921
inuten	-12922
▁erhoben	-12923
▁Take	-12924
▁Konsequ	-12925
▁Fischler	-12926
▁begrenzt	-12927
▁zugrunde	-12928
▁cer	-12929
▁Kirk	-12930
▁Town	-12931
▁healthy	-12932
▁Beratung	-12933
▁anhalten	-12934
WF	-12935
▁texts	-12936
ZB	-12937
▁Jer	-12938
▁Ton	-12939
▁vorauss	-12940
▁faith	-12941
▁Schiffe	-12942
▁Sicherung	-12943
▁beteiligten	-12944
▁Tip	-12945
▁bud	-12946
▁Radio	-12947
▁Politiken	-12948
▁renovated	-12949
▁trotzdem	-12950
ässig	-12951
▁Culture	-12952
▁ACP	-12953
▁33	-12954
▁na	-12955
▁decorated	-12956
▁Estonia	-12957
communications	-12958
genz	-12959
▁gestern	-12960
▁serviert	-12961
▁zugelassen	-12962
Staaten	-12963
rist	-12964
▁Fer	-12965
class	-12966
▁shop	-12967
▁Taiwan	-12968
▁Ausstattung	-12969
ito	-12970
market	-12971
▁zugute	-12972
üren	-12973
▁Weltw	-12974
▁ziemlich	-12975
▁geprä	-12976
▁replace	-12977
▁sodass	-12978
▁firstly	-12979
▁notwendige	-12980
▁russischen	-12981
eping	-12982
meldung	-12983
▁Theater	-12984
rd	-12985
▁inj	-12986
▁Quark	-12987
folgung	-12988
▁Sudan	-12989
▁spectac	-12990
coun	-12991
▁Verk	-12992
▁verboten	-12993
▁forese	-12994
ifall	-12995
ighten	-12996
ommerce	-12997
▁Kollege	-12998
▁entlang	-12999
emm	-13000
eta	-13001
lem	-13002
▁65	-13003
▁Indones	-13004
▁direkten	-13005
▁erlauben	-13006
ipfel	-13007
▁drawing	-13008
▁objects	-13009
arp	-13010
liste	-13011
▁cool	-13012
iences	-13013
▁Essen	-13014
Br	-13015
osis	-13016
▁(199	-13017
▁EM	-13018
▁Frist	-13019
▁equivalent	-13020
▁ow	-13021
hips	-13022
▁Umgang	-13023
▁Zugangs	-13024
▁justified	-13025
▁verfügbaren	-13026
ieden	-13027
▁ursprünglich	-13028
▁enhanced	-13029
▁zurückzuführen	-13030
▁ster	-13031
▁Bewer	-13032
othing	-13033
schule	-13034
▁Drittel	-13035
▁Verg	-13036
▁piece	-13037
▁Quellen	-13038
▁creative	-13039
▁geplante	-13040
▁entspannen	-13041
▁multinational	-13042
▁europa	-13043
▁Betracht	-13044
▁strategische	-13045
ez	-13046
▁straight	-13047
▁erscheinen	-13048
▁Audio	-13049
▁neutr	-13050
▁echten	-13051
emission	-13052
▁aggress	-13053
▁targeted	-13054
Entw	-13055
▁Inf	-13056
ín	-13057
▁voller	-13058
verbrauch	-13059
bern	-13060
▁Industry	-13061
uite	-13062
ughter	-13063
▁langfristigen	-13064
änen	-13065
▁Congress	-13066
USS	-13067
▁Zwecke	-13068
▁Award	-13069
▁Treat	-13070
flächen	-13071
erkennen	-13072
▁northern	-13073
▁Bürgerbeauftrag	-13074
ikaner	-13075
▁ueber	-13076
▁warning	-13077
▁achten	-13078
▁leichter	-13079
▁verleihen	-13080
NE	-13081
▁Jedes	-13082
▁journey	-13083
▁angekünd	-13084
6)	-13085
atre	-13086
▁sorgt	-13087
▁55	-13088
▁notes	-13089
angebot	-13090
▁Slowenien	-13091
▁ECHO	-13092
▁lobby	-13093
▁rising	-13094
▁Qualifik	-13095
ksamkeit	-13096
▁6,	-13097
▁fordere	-13098
oria	-13099
▁USS	-13100
▁destruction	-13101
▁organization	-13102
▁Bug	-13103
▁einig	-13104
▁ships	-13105
ection	-13106
▁Latein	-13107
material	-13108
ordnungen	-13109
▁Zentralbank	-13110
annung	-13111
passen	-13112
▁lovely	-13113
▁venture	-13114
▁Frühjahr	-13115
▁presents	-13116
▁commission	-13117
ahrt	-13118
▁Dus	-13119
▁Legal	-13120
▁Patten	-13121
▁Reduzierung	-13122
viertel	-13123
▁phenomen	-13124
▁delighted	-13125
▁exclusively	-13126
▁Naz	-13127
▁Konkurr	-13128
▁einverstanden	-13129
igend	-13130
ieller	-13131
▁planet	-13132
▁Problems	-13133
verwaltung	-13134
▁äußern	-13135
▁kontinuier	-13136
▁aktuell	-13137
vi	-13138
TML	-13139
iones	-13140
agements	-13141
▁Fleisch	-13142
▁konfront	-13143
▁Gleichstellung	-13144
Is	-13145
abin	-13146
cell	-13147
ATION	-13148
▁Hostel	-13149
▁routes	-13150
▁Websites	-13151
▁familiar	-13152
▁geschrieben	-13153
▁inhabitants	-13154
▁Barnier	-13155
▁Tim	-13156
▁cable	-13157
▁outdoor	-13158
schaffung	-13159
▁gestärkt	-13160
geht	-13161
▁Vern	-13162
agers	-13163
▁operator	-13164
▁Besorgnis	-13165
▁interessiert	-13166
▁Angebote	-13167
▁britische	-13168
▁Übersetzung	-13169
▁decline	-13170
▁collaboration	-13171
▁offices	-13172
▁characteristics	-13173
schreitenden	-13174
▁Wirklichkeit	-13175
▁Begr	-13176
▁integrierten	-13177
täus	-13178
▁belg	-13179
▁Prinzipien	-13180
itar	-13181
▁sharing	-13182
azz	-13183
▁Beide	-13184
▁Ambiente	-13185
▁believes	-13186
▁rapporteurs	-13187
▁präz	-13188
▁folgender	-13189
▁AM	-13190
ties	-13191
▁couple	-13192
LAF	-13193
führungs	-13194
▁precise	-13195
▁Insgesamt	-13196
▁pick	-13197
▁Anhör	-13198
▁Kapitel	-13199
▁Ausgangspunkt	-13200
▁cancel	-13201
▁erstmals	-13202
▁advent	-13203
▁organisiert	-13204
▁erfolgreiche	-13205
ockt	-13206
▁lautet	-13207
ifizieren	-13208
▁Johannes	-13209
▁Register	-13210
kter	-13211
teils	-13212
▁feeling	-13213
▁Ausgabe	-13214
▁Dialogs	-13215
▁anschließen	-13216
▁ausgeschlossen	-13217
zert	-13218
▁abandon	-13219
▁Erfüllung	-13220
vec	-13221
▁Il	-13222
hard	-13223
▁Situ	-13224
imedia	-13225
▁programming	-13226
:5	-13227
ranche	-13228
▁showed	-13229
▁ersetzt	-13230
▁schritt	-13231
▁societies	-13232
wirtschaften	-13233
▁Erinner	-13234
▁towns	-13235
▁accident	-13236
rates	-13237
▁jetz	-13238
istent	-13239
▁Provinz	-13240
▁savings	-13241
▁bestimmen	-13242
▁Zusammenhalt	-13243
▁Refer	-13244
▁Punkten	-13245
▁answers	-13246
▁witness	-13247
}})	-13248
▁Games	-13249
etheless	-13250
▁Bord	-13251
▁films	-13252
▁erinnert	-13253
▁frequently	-13254
▁ausgestatte	-13255
▁beeindruck	-13256
icans	-13257
▁Baum	-13258
▁sending	-13259
▁correctly	-13260
aux	-13261
▁Kroes	-13262
aturen	-13263
▁forum	-13264
▁compla	-13265
▁Sollte	-13266
▁buchen	-13267
▁Budapest	-13268
▁hardware	-13269
▁Besonders	-13270
▁coordinated	-13271
▁mussten	-13272
▁70%	-13273
pfung	-13274
▁München	-13275
parte	-13276
▁crimes	-13277
▁gelöst	-13278
▁subsidiarity	-13279
▁34	-13280
blatt	-13281
▁kurze	-13282
▁revision	-13283
▁Hindernisse	-13284
tedly	-13285
▁automatic	-13286
freien	-13287
▁remed	-13288
▁Prom	-13289
▁Li	-13290
▁inf	-13291
▁abuse	-13292
▁king	-13293
ssysteme	-13294
aub	-13295
▁showing	-13296
▁Är	-13297
Haus	-13298
▁forec	-13299
▁bestätigen	-13300
▁Eigenschaften	-13301
▁Wandel	-13302
▁amen	-13303
▁zuerst	-13304
idden	-13305
stood	-13306
▁Total	-13307
▁Gewicht	-13308
▁Blut	-13309
inistry	-13310
▁hervorheben	-13311
▁mur	-13312
depth	-13313
▁Freizügigkeit	-13314
spruchs	-13315
▁EL	-13316
lieb	-13317
geräte	-13318
▁divided	-13319
▁Rückkehr	-13320
▁Verlust	-13321
weisungen	-13322
▁Vereinfachung	-13323
scale	-13324
rovers	-13325
▁Hamas	-13326
▁digitalen	-13327
▁Grad	-13328
▁fisher	-13329
▁appreciate	-13330
▁bedrooms	-13331
zut	-13332
▁Nap	-13333
▁exclusion	-13334
▁Sonn	-13335
▁rück	-13336
▁license	-13337
▁educational	-13338
CP	-13339
gebieten	-13340
mo	-13341
han	-13342
▁Vict	-13343
▁dry	-13344
▁mostly	-13345
▁Atom	-13346
▁finde	-13347
▁Dev	-13348
igert	-13349
wahlen	-13350
▁repeat	-13351
▁gewähren	-13352
▁ungefähr	-13353
▁humanitären	-13354
▁Wesentlichen	-13355
zeg	-13356
▁doesn	-13357
▁receiving	-13358
▁Fig	-13359
▁dog	-13360
andal	-13361
▁Noch	-13362
▁Gästen	-13363
▁ausgezeichneten	-13364
▁Week	-13365
▁2010,	-13366
352)	-13367
erer	-13368
▁Via	-13369
▁airports	-13370
▁Kann	-13371
▁Zert	-13372
▁Based	-13373
▁Nie	-13374
unger	-13375
▁index	-13376
▁Identität	-13377
▁Moz	-13378
▁Abhäng	-13379
▁bureauc	-13380
▁explicit	-13381
▁legitimate	-13382
▁Sauna	-13383
▁voluntary	-13384
▁Gemeinsame	-13385
▁)	-13386
▁eyes	-13387
▁Competition	-13388
isa	-13389
▁preis	-13390
▁Zusammenschluss	-13391
▁MB	-13392
▁seat	-13393
▁Futter	-13394
▁participating	-13395
▁facts	-13396
▁Grunds	-13397
AV	-13398
LO	-13399
endo	-13400
unning	-13401
▁habit	-13402
▁bedroom	-13403
▁fü	-13404
▁(0	-13405
▁Behörde	-13406
▁korr	-13407
chseln	-13408
▁Erhaltung	-13409
▁Errichtung	-13410
▁preserv	-13411
▁Assembly	-13412
▁Weiteren	-13413
Europe	-13414
▁reden	-13415
▁supposed	-13416
ruh	-13417
▁indicated	-13418
▁erfolgreichen	-13419
while	-13420
▁Word	-13421
▁alco	-13422
▁Raums	-13423
▁Serbia	-13424
▁settings	-13425
▁universities	-13426
▁Liebe	-13427
entwick	-13428
▁kämpfen	-13429
▁happening	-13430
▁verantwortungs	-13431
beschreibung	-13432
▁strengthened	-13433
▁Pin	-13434
▁Soviet	-13435
▁Litauen	-13436
▁größeres	-13437
conne	-13438
▁Gesetzes	-13439
▁Drittens	-13440
3-	-13441
▁Cook	-13442
▁Nummer	-13443
▁remained	-13444
▁derzeitige	-13445
▁unterliegen	-13446
300	-13447
EEC	-13448
▁Life	-13449
schirm	-13450
▁acceler	-13451
▁parents	-13452
▁reduzieren	-13453
▁cle	-13454
▁Verlauf	-13455
▁welchem	-13456
deckt	-13457
▁topic	-13458
▁kostet	-13459
▁Anfragen	-13460
▁financed	-13461
achte	-13462
▁Gleichgewicht	-13463
▁si	-13464
▁Beziehung	-13465
▁AP	-13466
▁soweit	-13467
▁specified	-13468
▁grundsätzlich	-13469
tendlich	-13470
▁Defizit	-13471
paket	-13472
▁Mall	-13473
▁fördert	-13474
geschäft	-13475
▁installieren	-13476
▁gezwungen	-13477
ati	-13478
▁Büro	-13479
▁Jes	-13480
urities	-13481
otive	-13482
gelung	-13483
▁Block	-13484
▁somewhat	-13485
▁steuer	-13486
▁Erreichung	-13487
▁supplement	-13488
bedarf	-13489
▁Show	-13490
▁Turn	-13491
▁macro	-13492
Par	-13493
▁konkret	-13494
▁util	-13495
▁Mitgliedschaft	-13496
▁NGOs	-13497
gehens	-13498
▁kamen	-13499
▁Job	-13500
▁Verhandlungs	-13501
▁64	-13502
▁Engine	-13503
▁Eigentum	-13504
▁Schatten	-13505
▁Ram	-13506
▁mini	-13507
▁eligible	-13508
▁schreiben	-13509
▁personally	-13510
jahres	-13511
▁library	-13512
▁producing	-13513
▁spezifische	-13514
▁Verd	-13515
▁cycle	-13516
▁legally	-13517
▁protocol	-13518
▁checks	-13519
▁periods	-13520
▁enabling	-13521
▁Brasilien	-13522
▁stehenden	-13523
▁transmission	-13524
itete	-13525
▁Verhe	-13526
itizens	-13527
▁Monten	-13528
▁corresponding	-13529
itim	-13530
▁father	-13531
▁Geheim	-13532
▁kurzen	-13533
▁Verbrauchern	-13534
igu	-13535
▁unmöglich	-13536
▁übernimmt	-13537
▁constitutional	-13538
ups	-13539
▁(*	-13540
▁schwar	-13541
▁stammen	-13542
▁Territ	-13543
▁schnelle	-13544
▁überprüft	-13545
▁Reis	-13546
▁Vater	-13547
▁dishes	-13548
▁slightly	-13549
aller	-13550
▁contributed	-13551
Ben	-13552
gelöst	-13553
▁essen	-13554
▁Galileo	-13555
▁reserves	-13556
▁publication	-13557
greg	-13558
weile	-13559
astung	-13560
▁verschw	-13561
ässer	-13562
▁label	-13563
▁Höchst	-13564
▁gone	-13565
mes	-13566
▁drug	-13567
decken	-13568
▁Temper	-13569
▁solange	-13570
Rechts	-13571
▁Frühstücksb	-13572
▁negotiating	-13573
▁Caf	-13574
▁münd	-13575
ounted	-13576
▁Child	-13577
▁reserve	-13578
▁Jack	-13579
fähige	-13580
87	-13581
advant	-13582
▁Reding	-13583
▁konfrontiert	-13584
▁Beschränkungen	-13585
▁1970	-13586
▁fee	-13587
einen	-13588
▁voran	-13589
cop	-13590
ICHT	-13591
istiken	-13592
▁700	-13593
▁Finanzen	-13594
99	-13595
▁Börse	-13596
▁deals	-13597
vorhaben	-13598
▁Ausführungen	-13599
▁unverzüglich	-13600
▁soft	-13601
▁Munich	-13602
▁visible	-13603
ermal	-13604
▁Notes	-13605
▁worry	-13606
▁konzentriert	-13607
▁BMW	-13608
▁Kamera	-13609
uster	-13610
▁Newsletter	-13611
zin	-13612
▁stone	-13613
kapital	-13614
chmark	-13615
▁complic	-13616
bi	-13617
bereiten	-13618
▁discharge	-13619
▁ländliche	-13620
ochen	-13621
▁Laut	-13622
gyp	-13623
▁erstre	-13624
orie	-13625
▁Lett	-13626
▁react	-13627
▁Konzep	-13628
▁endors	-13629
▁elsewhere	-13630
▁regionaler	-13631
▁sah	-13632
▁Alters	-13633
▁Kräfte	-13634
▁ausgeführt	-13635
▁theme	-13636
▁proved	-13637
▁Adobe	-13638
▁Wertpap	-13639
▁behoben	-13640
▁depending	-13641
▁root	-13642
schluß	-13643
▁Sektors	-13644
▁Berichterstat	-13645
▁interpretation	-13646
▁cry	-13647
▁Bars	-13648
▁resolutions	-13649
▁roads	-13650
▁islands	-13651
▁festzulegen	-13652
lichte	-13653
▁percentage	-13654
ef	-13655
▁stars	-13656
beihilfen	-13657
▁stärkere	-13658
eing	-13659
▁unabhängigen	-13660
BC	-13661
Ebene	-13662
......	-13663
▁obliged	-13664
▁suspend	-13665
▁Sobald	-13666
▁führende	-13667
▁east	-13668
▁Puerto	-13669
▁preventing	-13670
▁zivil	-13671
▁fühlen	-13672
▁parlament	-13673
▁crop	-13674
▁euros	-13675
▁alarm	-13676
▁smooth	-13677
▁weather	-13678
▁strukture	-13679
beweg	-13680
▁Himm	-13681
herstellung	-13682
spolitischen	-13683
nien	-13684
▁25.	-13685
traum	-13686
▁OLAF	-13687
Vorschriften	-13688
▁cosy	-13689
ündete	-13690
▁jenen	-13691
öffnung	-13692
▁Bauern	-13693
▁Versorgung	-13694
porte	-13695
▁beherr	-13696
▁gewissen	-13697
eding	-13698
▁José	-13699
▁signs	-13700
▁erhielt	-13701
oses	-13702
▁nutz	-13703
gested	-13704
▁Herbst	-13705
▁tariff	-13706
▁Atlantic	-13707
▁Versicherungs	-13708
Med	-13709
▁Jud	-13710
▁exch	-13711
▁getragen	-13712
▁einfachen	-13713
▁Bemerkungen	-13714
▁194	-13715
▁sen	-13716
azine	-13717
▁senden	-13718
▁eingegangen	-13719
▁15%	-13720
▁Cub	-13721
▁Ext	-13722
opolit	-13723
ación	-13724
▁partly	-13725
▁seeing	-13726
He	-13727
▁stopp	-13728
▁Training	-13729
pers	-13730
▁newsp	-13731
▁Fassung	-13732
▁müssten	-13733
▁übersch	-13734
Adresse	-13735
▁indirect	-13736
▁Mehrwerts	-13737
iki	-13738
irs	-13739
▁SAP	-13740
idance	-13741
liefert	-13742
▁spoken	-13743
▁disasters	-13744
▁multilater	-13745
▁era	-13746
illance	-13747
▁bottom	-13748
DER	-13749
oured	-13750
▁actors	-13751
▁aktive	-13752
▁Werbung	-13753
▁entrepreneurs	-13754
▁Regionalpolitik	-13755
▁benefic	-13756
▁Procedure	-13757
▁transportation	-13758
Bar	-13759
▁GD	-13760
ammeln	-13761
kö	-13762
▁inspir	-13763
▁bewältigen	-13764
▁gets	-13765
lebnis	-13766
▁housing	-13767
▁Kongress	-13768
athem	-13769
▁Islands	-13770
▁carrying	-13771
▁Sar	-13772
▁Medik	-13773
▁lists	-13774
▁discip	-13775
▁disadvant	-13776
▁verwirk	-13777
rechtlichen	-13778
▁ensures	-13779
▁gestaltet	-13780
ECD	-13781
▁Minutes	-13782
▁wonach	-13783
▁addressing	-13784
pay	-13785
räumen	-13786
▁geplant	-13787
▁verurteilt	-13788
▁erwähn	-13789
▁freedoms	-13790
▁relative	-13791
kreis	-13792
region	-13793
▁acting	-13794
▁dining	-13795
ographic	-13796
▁Gerichtshofs	-13797
Con	-13798
▁Anre	-13799
▁differ	-13800
point	-13801
▁Öffnung	-13802
baus	-13803
mess	-13804
town	-13805
burgh	-13806
▁hall	-13807
Prozess	-13808
▁"...	-13809
diction	-13810
mitglieder	-13811
rans	-13812
▁Holid	-13813
▁Wissens	-13814
▁Blue	-13815
▁schne	-13816
▁langfristig	-13817
▁Wikitra	-13818
▁individuell	-13819
▁Leban	-13820
▁Organe	-13821
▁letzter	-13822
ML	-13823
▁iron	-13824
▁cold	-13825
▁oral	-13826
▁suites	-13827
▁sehe	-13828
▁Within	-13829
▁extraordin	-13830
reift	-13831
▁tail	-13832
lements	-13833
▁Ebenen	-13834
uggage	-13835
▁replaced	-13836
▁MED	-13837
stätigkeit	-13838
▁component	-13839
▁gerichtet	-13840
▁comparison	-13841
▁praktische	-13842
▁Lernen	-13843
▁fourth	-13844
▁revised	-13845
▁enterprise	-13846
jekten	-13847
▁decade	-13848
▁Sorgen	-13849
▁External	-13850
▁Ty	-13851
▁Georgia	-13852
▁considering	-13853
▁OR	-13854
▁losses	-13855
infrastruktur	-13856
▁Rio	-13857
▁Verpack	-13858
▁decisive	-13859
▁verkaufen	-13860
ennzeichnet	-13861
▁Hen	-13862
▁mother	-13863
▁benachteil	-13864
▁japan	-13865
kons	-13866
▁einfacher	-13867
▁offiziellen	-13868
▁raw	-13869
▁displayed	-13870
▁Fa	-13871
mitten	-13872
asion	-13873
▁Format	-13874
▁Steigerung	-13875
wählen	-13876
▁Women	-13877
▁Implement	-13878
▁personnel	-13879
▁unentgelt	-13880
asbourg	-13881
▁Wikitravel	-13882
▁Equ	-13883
▁wann	-13884
iegelt	-13885
tokoll	-13886
▁Wirksamkeit	-13887
▁thres	-13888
smoking	-13889
▁mittleren	-13890
▁Ten	-13891
▁Effe	-13892
▁Ka	-13893
valu	-13894
▁arab	-13895
▁solar	-13896
▁Object	-13897
▁angegebenen	-13898
RC	-13899
▁wohnen	-13900
▁Energies	-13901
würdigkeit	-13902
instrumente	-13903
ikes	-13904
▁Sky	-13905
▁vary	-13906
förderung	-13907
▁Deutschen	-13908
▁Textil	-13909
▁enthus	-13910
▁Addition	-13911
▁reflects	-13912
▁rechtzeit	-13913
▁Investoren	-13914
FP	-13915
acio	-13916
ugoslaw	-13917
▁luxuri	-13918
▁surroundings	-13919
DI	-13920
pping	-13921
▁rechtliche	-13922
▁Fang	-13923
▁Rural	-13924
▁Ersatz	-13925
▁uniform	-13926
▁zurückzu	-13927
▁betreffend	-13928
▁luxurious	-13929
zuschließen	-13930
▁aktivieren	-13931
iaz	-13932
▁Federation	-13933
▁sorgfältig	-13934
▁abwe	-13935
▁Youth	-13936
▁Latvia	-13937
▁entdecken	-13938
ateful	-13939
▁Kriegs	-13940
▁academ	-13941
▁examined	-13942
▁satisfied	-13943
▁umfassend	-13944
UT	-13945
ibliothek	-13946
▁judge	-13947
cat	-13948
▁whe	-13949
▁spezial	-13950
▁interven	-13951
▁fu	-13952
▁mitten	-13953
▁Without	-13954
▁Fahrzeuge	-13955
technologie	-13956
gor	-13957
ulich	-13958
▁Optim	-13959
▁miles	-13960
systems	-13961
▁erheblichen	-13962
ROM	-13963
▁Among	-13964
▁protest	-13965
▁+35	-13966
junktur	-13967
▁Korruption	-13968
üne	-13969
▁recy	-13970
▁geschä	-13971
▁virtual	-13972
▁Luc	-13973
ville	-13974
▁deleg	-13975
▁classic	-13976
▁Flughäfen	-13977
▁concentration	-13978
▁menschliche	-13979
eldet	-13980
▁beur	-13981
▁dark	-13982
steigen	-13983
völkerung	-13984
▁impression	-13985
▁Entscheidungs	-13986
▁traditionelle	-13987
Daten	-13988
▁anzuzeigen	-13989
anforderungen	-13990
rechter	-13991
▁vereinbart	-13992
▁gratulieren	-13993
crim	-13994
▁begeg	-13995
▁2002,	-13996
▁lounge	-13997
▁refers	-13998
▁senken	-13999
▁wollten	-14000
▁Alm	-14001
▁Pen	-14002
▁brut	-14003
▁reporting	-14004
▁beobachten	-14005
▁Regulierung	-14006
▁präsentiert	-14007
▁nachdrücklich	-14008
häuser	-14009
▁Annex	-14010
ereicht	-14011
▁Vorausschau	-14012
▁susp	-14013
ungssystem	-14014
▁labelling	-14015
leger	-14016
▁veränder	-14017
▁verstanden	-14018
▁Visa	-14019
lastung	-14020
▁distort	-14021
▁radical	-14022
▁geringer	-14023
▁naturally	-14024
▁packaging	-14025
jpg	-14026
sson	-14027
friendly	-14028
hrten	-14029
reize	-14030
schläge	-14031
▁Depart	-14032
▁gardens	-14033
▁jointly	-14034
▁wirksamen	-14035
▁Burg	-14036
▁2003.	-14037
▁referendum	-14038
▁interessant	-14039
▁satisfactory	-14040
iop	-14041
▁Mov	-14042
▁Verab	-14043
▁Farb	-14044
▁sought	-14045
ugt	-14046
▁90%	-14047
▁furniture	-14048
▁prospects	-14049
▁7,	-14050
▁sauna	-14051
▁eventually	-14052
▁gründ	-14053
▁Spitzen	-14054
▁Vorstellung	-14055
▁breat	-14056
▁Boot	-14057
▁Tsch	-14058
UL	-14059
▁Stimmen	-14060
▁Funktions	-14061
ingly	-14062
ütung	-14063
▁geräum	-14064
▁Argument	-14065
pol	-14066
▁snow	-14067
▁Jordan	-14068
▁verringert	-14069
▁Solar	-14070
▁.....	-14071
orgungs	-14072
▁internen	-14073
pet	-14074
orca	-14075
▁auswirken	-14076
jud	-14077
▁topics	-14078
▁Edition	-14079
▁Investition	-14080
▁Cross	-14081
▁frame	-14082
lehnung	-14083
▁Überblick	-14084
usstsein	-14085
▁befasst	-14086
▁Erstellung	-14087
▁museum	-14088
maschinen	-14089
▁Kontakte	-14090
▁Verzöger	-14091
▁dich	-14092
▁Regen	-14093
▁neighbouring	-14094
ifth	-14095
▁proof	-14096
iny	-14097
▁1%	-14098
▁EURO	-14099
▁army	-14100
▁tritt	-14101
einanders	-14102
kul	-14103
▁müsste	-14104
▁ergänzt	-14105
▁fitness	-14106
▁Science	-14107
▁einheitliche	-14108
▁Charles	-14109
▁Monteneg	-14110
BM	-14111
▁Econom	-14112
▁umsetzen	-14113
▁vollständigen	-14114
kehrt	-14115
▁Ägyp	-14116
▁Nachbarn	-14117
▁ministers	-14118
▁university	-14119
▁Language	-14120
▁Geh	-14121
▁Pac	-14122
▁Clim	-14123
▁owner	-14124
▁generated	-14125
▁Aufforderung	-14126
▁zut	-14127
▁Kreuz	-14128
▁personen	-14129
▁Ausarbeitung	-14130
▁entf	-14131
▁ähnliche	-14132
▁Siehe	-14133
▁juris	-14134
▁Gegend	-14135
▁graphics	-14136
▁Opposition	-14137
finanzierung	-14138
▁Wiederaufbau	-14139
▁Moroc	-14140
▁partial	-14141
▁division	-14142
▁Valen	-14143
▁plays	-14144
▁encoun	-14145
▁Schloss	-14146
▁substance	-14147
▁grav	-14148
▁Anmer	-14149
▁distingu	-14150
Man	-14151
light	-14152
▁antw	-14153
▁tonn	-14154
▁Feuer	-14155
oration	-14156
▁Festpl	-14157
▁Buchung	-14158
▁perfekt	-14159
gänger	-14160
aya	-14161
▁configuration	-14162
andels	-14163
izer	-14164
ünde	-14165
▁Aqu	-14166
▁Mah	-14167
▁fem	-14168
▁forthcoming	-14169
sa	-14170
iane	-14171
▁Alp	-14172
▁Thailand	-14173
▁Vorgehens	-14174
▁committees	-14175
▁einzigartige	-14176
▁seeks	-14177
▁verehrte	-14178
▁einzusetzen	-14179
▁supervision	-14180
▁Spaz	-14181
▁ticket	-14182
▁courage	-14183
▁Dim	-14184
ariat	-14185
▁Plug	-14186
▁offene	-14187
▁Process	-14188
▁listings	-14189
▁distributed	-14190
▁Senkung	-14191
▁Airlines	-14192
▁possibly	-14193
▁envis	-14194
▁breiten	-14195
▁angepasst	-14196
präch	-14197
▁Lager	-14198
▁understood	-14199
▁Commissioners	-14200
▁Urheber	-14201
▁orders	-14202
ski	-14203
▁SE	-14204
erell	-14205
▁fill	-14206
▁adults	-14207
▁Monitor	-14208
▁movements	-14209
auschen	-14210
▁threats	-14211
stellungs	-14212
▁Indian	-14213
▁cancer	-14214
▁intelligent	-14215
▁authorisation	-14216
▁Leon	-14217
▁bedeutende	-14218
▁Ec	-14219
▁Plenum	-14220
icklungs	-14221
ierender	-14222
▁Meeting	-14223
▁verkauft	-14224
▁Rechtsgrundlage	-14225
▁recorded	-14226
▁demanding	-14227
freundliche	-14228
▁resistance	-14229
Sm	-14230
ixel	-14231
aching	-14232
afrika	-14233
▁steigern	-14234
▁geographical	-14235
▁hinweg	-14236
▁suffered	-14237
▁Hungarian	-14238
▁cooperate	-14239
▁traditions	-14240
▁died	-14241
▁2001,	-14242
ausgaben	-14243
▁cutting	-14244
66	-14245
VP	-14246
▁avec	-14247
▁Neelie	-14248
▁constitutes	-14249
▁Haut	-14250
▁gold	-14251
▁Music	-14252
arische	-14253
▁Norway	-14254
▁enjoyed	-14255
▁reaching	-14256
▁Pot	-14257
ricted	-14258
▁Email	-14259
▁erreichbar	-14260
▁vermitteln	-14261
▁James	-14262
aine	-14263
▁sac	-14264
lingen	-14265
▁Inflation	-14266
▁CAP	-14267
▁Rezeption	-14268
▁Fair	-14269
▁Gehm	-14270
▁starts	-14271
▁dominant	-14272
▁180	-14273
▁vari	-14274
▁killed	-14275
▁visiting	-14276
liehen	-14277
▁Finanzkrise	-14278
verhandlungen	-14279
▁awa	-14280
▁teams	-14281
▁entsteht	-14282
▁Komponenten	-14283
▁Verteidigungs	-14284
arn	-14285
▁Auditors	-14286
operations	-14287
▁Kilometer	-14288
prof	-14289
▁thr	-14290
▁Genau	-14291
altungs	-14292
▁genügend	-14293
▁Übernachtung	-14294
▁Ib	-14295
▁upp	-14296
träger	-14297
EWG	-14298
ulf	-14299
▁EZB	-14300
▁Yes	-14301
▁Vide	-14302
▁Metro	-14303
▁Premierminister	-14304
▁Thomas	-14305
▁trends	-14306
▁Domin	-14307
▁stren	-14308
▁produziert	-14309
plus	-14310
▁Erwerb	-14311
ftet	-14312
▁Distr	-14313
▁assume	-14314
▁Auftrags	-14315
▁Sund	-14316
▁enor	-14317
▁locations	-14318
GE	-14319
mary	-14320
▁diagn	-14321
▁behalten	-14322
rown	-14323
▁disabled	-14324
▁errichtet	-14325
▁gespeichert	-14326
▁Nob	-14327
▁eastern	-14328
utern	-14329
▁Ther	-14330
▁geeignete	-14331
▁Key	-14332
▁Ziffer	-14333
▁Welcome	-14334
▁authorised	-14335
▁Bewältigung	-14336
▁iP	-14337
oche	-14338
▁Andere	-14339
▁angemessenen	-14340
▁considerably	-14341
irls	-14342
▁Bru	-14343
▁lit	-14344
▁allocation	-14345
oub	-14346
▁fab	-14347
▁Works	-14348
▁Kanada	-14349
▁1:	-14350
▁sud	-14351
Mod	-14352
ucher	-14353
ti	-14354
grade	-14355
▁trees	-14356
▁visited	-14357
▁bisherigen	-14358
▁Materialien	-14359
klass	-14360
nitten	-14361
akro	-14362
idad	-14363
ained	-14364
hängt	-14365
▁tend	-14366
▁jegliche	-14367
sprozesses	-14368
▁Verheugen	-14369
▁nationals	-14370
ji	-14371
▁Max	-14372
▁1989	-14373
▁Still	-14374
▁beliebt	-14375
▁umfangreiche	-14376
ivals	-14377
Bürger	-14378
▁jener	-14379
lication	-14380
▁erfordern	-14381
▁Fein	-14382
▁troub	-14383
orrektur	-14384
▁Apparte	-14385
▁solches	-14386
▁Semin	-14387
▁stored	-14388
▁Siemens	-14389
▁beglückwünschen	-14390
▁dign	-14391
▁schäd	-14392
▁Ech	-14393
▁quotas	-14394
▁anzuwenden	-14395
▁beschränken	-14396
▁amerikanische	-14397
▁Wähler	-14398
▁performed	-14399
aga	-14400
pped	-14401
ivate	-14402
▁Vorbe	-14403
▁Unternehmer	-14404
▁Kriminalität	-14405
▁audit	-14406
▁fehlt	-14407
▁erheben	-14408
▁penalty	-14409
▁introducing	-14410
agg	-14411
▁laden	-14412
▁preced	-14413
▁Vorlage	-14414
▁undertakings	-14415
iftung	-14416
isations	-14417
▁ausgehen	-14418
▁Kompetenz	-14419
ctors	-14420
dauer	-14421
▁Nero	-14422
▁Verletzung	-14423
▁hinzufügen	-14424
ardo	-14425
omit	-14426
▁ruhig	-14427
▁indire	-14428
▁Zusätzlich	-14429
Im	-14430
▁Syria	-14431
künfte	-14432
▁Estland	-14433
▁occasions	-14434
▁bedro	-14435
▁Tonnen	-14436
▁farming	-14437
▁incentives	-14438
▁bann	-14439
▁herrscht	-14440
verordnung	-14441
▁liquid	-14442
▁ersetzen	-14443
▁unabhängige	-14444
▁amaz	-14445
▁Schüler	-14446
IX	-14447
▁23.	-14448
ustainable	-14449
▁Renten	-14450
▁techniques	-14451
▁30.	-14452
▁Liter	-14453
ameters	-14454
▁Ansichten	-14455
stes	-14456
▁Lohn	-14457
▁Guests	-14458
▁config	-14459
▁Versammlung	-14460
▁gebaut	-14461
vorschläge	-14462
▁manufacturer	-14463
Projekt	-14464
reformen	-14465
▁GVO	-14466
▁Nic	-14467
▁eingereicht	-14468
▁Chile	-14469
▁toward	-14470
▁suggested	-14471
▁Conc	-14472
▁Vermögens	-14473
▁verbinden	-14474
▁hervorgehoben	-14475
▁Full	-14476
▁Made	-14477
▁Friendly	-14478
CE	-14479
ét	-14480
werken	-14481
▁Vermitt	-14482
▁western	-14483
▁generate	-14484
▁schönsten	-14485
▁Ken	-14486
▁tours	-14487
▁professionals	-14488
ührt	-14489
▁Vene	-14490
▁paying	-14491
-5	-14492
▁hence	-14493
▁copyright	-14494
▁boot	-14495
▁Operation	-14496
▁accounting	-14497
nische	-14498
▁Werke	-14499
▁fleet	-14500
▁beizut	-14501
▁reasoned	-14502
▁Strasbourg	-14503
▁FA	-14504
prech	-14505
ography	-14506
oton	-14507
▁Hat	-14508
▁Auge	-14509
▁Attra	-14510
▁langsam	-14511
▁Ill	-14512
IK	-14513
▁Erwer	-14514
▁beruhen	-14515
▁Gehminuten	-14516
▁credibility	-14517
▁PSE	-14518
ahme	-14519
▁shipping	-14520
▁difficulty	-14521
▁aussprechen	-14522
▁Außenpolitik	-14523
▁Nam	-14524
▁fees	-14525
▁2.0	-14526
▁fasc	-14527
▁Geträn	-14528
▁sho	-14529
▁Nein	-14530
▁greatly	-14531
▁Kontinent	-14532
▁gemein	-14533
▁Orient	-14534
▁Krankheit	-14535
▁Nachricht	-14536
▁convergence	-14537
▁Flugzeug	-14538
▁grateful	-14539
▁Einstellungen	-14540
▁wirtschaftlich	-14541
betrieb	-14542
▁empfohlen	-14543
▁ang	-14544
llers	-14545
▁bezahlen	-14546
politische	-14547
▁amenities	-14548
▁solely	-14549
Politik	-14550
▁Gebiets	-14551
▁managing	-14552
▁empfangen	-14553
▁hearing	-14554
▁Existenz	-14555
▁coherent	-14556
▁ausgewählt	-14557
▁Farbe	-14558
▁Grünbuch	-14559
holds	-14560
emen	-14561
▁Rail	-14562
▁aftern	-14563
▁windows	-14564
▁Aktionspl	-14565
▁documentation	-14566
defiz	-14567
▁Gemäß	-14568
▁consc	-14569
▁etabl	-14570
▁Individ	-14571
utor	-14572
cision	-14573
▁Stellungnahmen	-14574
▁shock	-14575
▁thumb	-14576
ammt	-14577
▁anwes	-14578
▁hingegen	-14579
▁verwand	-14580
istischer	-14581
anen	-14582
vergenz	-14583
▁monopol	-14584
▁hyd	-14585
▁dates	-14586
▁anschließend	-14587
▁beschäftigen	-14588
ignet	-14589
▁careful	-14590
▁restore	-14591
▁Australia	-14592
▁Sat	-14593
▁stil	-14594
▁bekomm	-14595
▁machte	-14596
▁theoret	-14597
▁Verteilung	-14598
▁Bereitschaft	-14599
balgs	-14600
▁Gang	-14601
orters	-14602
▁proven	-14603
hältnism	-14604
acks	-14605
▁Mail	-14606
▁Indik	-14607
▁Pos	-14608
▁Fußball	-14609
wirtschaftung	-14610
▁unentgeltlich	-14611
ulse	-14612
leichheit	-14613
▁magnific	-14614
▁Instruments	-14615
har	-14616
▁Konvent	-14617
▁fertig	-14618
▁Ausführung	-14619
▁festzustellen	-14620
▁überras	-14621
▁Kulturen	-14622
▁passiert	-14623
▁Badezimmer	-14624
▁Abhängigkeit	-14625
ried	-14626
ätigung	-14627
▁liefert	-14628
▁ought	-14629
▁arrive	-14630
hältnisse	-14631
▁Satz	-14632
▁flexib	-14633
bsp	-14634
arel	-14635
▁Branche	-14636
▁balcony	-14637
▁dispute	-14638
▁Warcraft	-14639
▁gespielt	-14640
▁gestattet	-14641
iaries	-14642
▁Situated	-14643
ährt	-14644
▁Kais	-14645
▁Schwellen	-14646
utet	-14647
▁marine	-14648
▁Allianz	-14649
GA	-14650
▁commen	-14651
▁angewandt	-14652
▁spectacular	-14653
ubl	-14654
▁Sams	-14655
▁geboren	-14656
▁wiederholt	-14657
reform	-14658
▁Islamic	-14659
▁Official	-14660
zung	-14661
utical	-14662
▁Nikon	-14663
emissionen	-14664
ungssicherheit	-14665
▁Internationale	-14666
▁personenbezogen	-14667
ätzungen	-14668
▁anspruchs	-14669
▁Termin	-14670
▁realer	-14671
▁reaction	-14672
▁Eigentums	-14673
schreitende	-14674
Me	-14675
ulen	-14676
weilen	-14677
▁flows	-14678
▁Pakete	-14679
▁sichere	-14680
▁430	-14681
▁Netze	-14682
▁wireless	-14683
▁AU	-14684
▁Stufe	-14685
▁spoke	-14686
hältnismäß	-14687
ami	-14688
▁95	-14689
fisch	-14690
▁Francis	-14691
▁Planeten	-14692
▁Mechanismen	-14693
▁unn	-14694
ianischen	-14695
▁appeared	-14696
▁album	-14697
▁usual	-14698
▁dependent	-14699
▁Montenegro	-14700
▁didn	-14701
▁narrow	-14702
everkehr	-14703
▁complaints	-14704
ASE	-14705
ielten	-14706
▁profile	-14707
▁HTML	-14708
ausend	-14709
▁Persön	-14710
▁AND	-14711
▁religion	-14712
▁Wissenschaftler	-14713
▁Place	-14714
▁städt	-14715
▁ökonom	-14716
▁Holiday	-14717
▁Corporation	-14718
▁Plus	-14719
Auf	-14720
idet	-14721
▁Nok	-14722
oom	-14723
ped	-14724
umber	-14725
▁Rückgang	-14726
▁overview	-14727
▁abgestimmt	-14728
▁unterscheiden	-14729
▁ven	-14730
▁Dipl	-14731
▁symp	-14732
▁anbel	-14733
▁Übrigen	-14734
▁woman	-14735
▁vorstellen	-14736
ii	-14737
strafe	-14738
▁plenty	-14739
▁reduziert	-14740
▁representation	-14741
bul	-14742
umul	-14743
▁desk	-14744
[...]
